<pad>	0
<unk>	0
<s>	0
</s>	0
'	0
&	0
mart	0
express	0
bank	0
food	0
katinat	0
dookki	0
shopee	0
tiki	0
lazada	0
grab	0
gojek	0
starbucks	0
highlands	0
phuclong	0
co.opmart	0
<0x00>	0
<0x01>	0
<0x02>	0
<0x03>	0
<0x04>	0
<0x05>	0
<0x06>	0
<0x07>	0
<0x08>	0
<0x09>	0
<0x0A>	0
<0x0B>	0
<0x0C>	0
<0x0D>	0
<0x0E>	0
<0x0F>	0
<0x10>	0
<0x11>	0
<0x12>	0
<0x13>	0
<0x14>	0
<0x15>	0
<0x16>	0
<0x17>	0
<0x18>	0
<0x19>	0
<0x1A>	0
<0x1B>	0
<0x1C>	0
<0x1D>	0
<0x1E>	0
<0x1F>	0
<0x20>	0
<0x21>	0
<0x22>	0
<0x23>	0
<0x24>	0
<0x25>	0
<0x26>	0
<0x27>	0
<0x28>	0
<0x29>	0
<0x2A>	0
<0x2B>	0
<0x2C>	0
<0x2D>	0
<0x2E>	0
<0x2F>	0
<0x30>	0
<0x31>	0
<0x32>	0
<0x33>	0
<0x34>	0
<0x35>	0
<0x36>	0
<0x37>	0
<0x38>	0
<0x39>	0
<0x3A>	0
<0x3B>	0
<0x3C>	0
<0x3D>	0
<0x3E>	0
<0x3F>	0
<0x40>	0
<0x41>	0
<0x42>	0
<0x43>	0
<0x44>	0
<0x45>	0
<0x46>	0
<0x47>	0
<0x48>	0
<0x49>	0
<0x4A>	0
<0x4B>	0
<0x4C>	0
<0x4D>	0
<0x4E>	0
<0x4F>	0
<0x50>	0
<0x51>	0
<0x52>	0
<0x53>	0
<0x54>	0
<0x55>	0
<0x56>	0
<0x57>	0
<0x58>	0
<0x59>	0
<0x5A>	0
<0x5B>	0
<0x5C>	0
<0x5D>	0
<0x5E>	0
<0x5F>	0
<0x60>	0
<0x61>	0
<0x62>	0
<0x63>	0
<0x64>	0
<0x65>	0
<0x66>	0
<0x67>	0
<0x68>	0
<0x69>	0
<0x6A>	0
<0x6B>	0
<0x6C>	0
<0x6D>	0
<0x6E>	0
<0x6F>	0
<0x70>	0
<0x71>	0
<0x72>	0
<0x73>	0
<0x74>	0
<0x75>	0
<0x76>	0
<0x77>	0
<0x78>	0
<0x79>	0
<0x7A>	0
<0x7B>	0
<0x7C>	0
<0x7D>	0
<0x7E>	0
<0x7F>	0
<0x80>	0
<0x81>	0
<0x82>	0
<0x83>	0
<0x84>	0
<0x85>	0
<0x86>	0
<0x87>	0
<0x88>	0
<0x89>	0
<0x8A>	0
<0x8B>	0
<0x8C>	0
<0x8D>	0
<0x8E>	0
<0x8F>	0
<0x90>	0
<0x91>	0
<0x92>	0
<0x93>	0
<0x94>	0
<0x95>	0
<0x96>	0
<0x97>	0
<0x98>	0
<0x99>	0
<0x9A>	0
<0x9B>	0
<0x9C>	0
<0x9D>	0
<0x9E>	0
<0x9F>	0
<0xA0>	0
<0xA1>	0
<0xA2>	0
<0xA3>	0
<0xA4>	0
<0xA5>	0
<0xA6>	0
<0xA7>	0
<0xA8>	0
<0xA9>	0
<0xAA>	0
<0xAB>	0
<0xAC>	0
<0xAD>	0
<0xAE>	0
<0xAF>	0
<0xB0>	0
<0xB1>	0
<0xB2>	0
<0xB3>	0
<0xB4>	0
<0xB5>	0
<0xB6>	0
<0xB7>	0
<0xB8>	0
<0xB9>	0
<0xBA>	0
<0xBB>	0
<0xBC>	0
<0xBD>	0
<0xBE>	0
<0xBF>	0
<0xC0>	0
<0xC1>	0
<0xC2>	0
<0xC3>	0
<0xC4>	0
<0xC5>	0
<0xC6>	0
<0xC7>	0
<0xC8>	0
<0xC9>	0
<0xCA>	0
<0xCB>	0
<0xCC>	0
<0xCD>	0
<0xCE>	0
<0xCF>	0
<0xD0>	0
<0xD1>	0
<0xD2>	0
<0xD3>	0
<0xD4>	0
<0xD5>	0
<0xD6>	0
<0xD7>	0
<0xD8>	0
<0xD9>	0
<0xDA>	0
<0xDB>	0
<0xDC>	0
<0xDD>	0
<0xDE>	0
<0xDF>	0
<0xE0>	0
<0xE1>	0
<0xE2>	0
<0xE3>	0
<0xE4>	0
<0xE5>	0
<0xE6>	0
<0xE7>	0
<0xE8>	0
<0xE9>	0
<0xEA>	0
<0xEB>	0
<0xEC>	0
<0xED>	0
<0xEE>	0
<0xEF>	0
<0xF0>	0
<0xF1>	0
<0xF2>	0
<0xF3>	0
<0xF4>	0
<0xF5>	0
<0xF6>	0
<0xF7>	0
<0xF8>	0
<0xF9>	0
<0xFA>	0
<0xFB>	0
<0xFC>	0
<0xFD>	0
<0xFE>	0
<0xFF>	0
▁đường	-3.09708
▁phố	-3.96758
▁hẻm	-4.382
▁nguyễn	-4.3896
▁-	-4.47503
▁hà	-4.50185
▁nội	-4.56058
▁thành	-4.60702
▁văn	-4.63171
▁ngõ	-4.6633
▁trường	-4.68562
▁số	-4.76607
▁ninh	-4.86695
▁quốc	-4.88777
▁học	-4.94501
▁lộ	-4.99471
▁trung	-5.02182
▁tỉnh	-5.08607
▁công	-5.1141
▁nhà	-5.17394
▁minh	-5.17804
▁bắc	-5.19007
▁cầu	-5.20425
▁1	-5.2112
▁trần	-5.21212
▁2	-5.2212
▁lê	-5.23827
▁	-5.26166
▁an	-5.26299
▁hồ	-5.29389
▁bình	-5.31218
,	-5.31259
▁nam	-5.34559
▁viện	-5.37323
▁đại	-5.37406
▁tân	-5.40075
▁evn	-5.40266
▁chí	-5.42046
▁phú	-5.45369
▁thị	-5.4661
▁cao	-5.48642
▁sơn	-5.5147
▁bệnh	-5.52312
▁phường	-5.57449
a	-5.57548
▁khu	-5.60347
▁long	-5.61396
▁việt	-5.62335
▁3	-5.67159
b	-5.70232
▁hoàng	-5.73129
▁quận	-5.76805
▁đình	-5.76845
▁xuân	-5.77577
▁đồng	-5.77772
▁xã	-5.79436
▁ngách	-5.80026
▁thanh	-5.81706
▁hưng	-5.82398
▁đức	-5.82999
▁phạm	-5.89662
▁dương	-5.89828
▁cơ	-5.9028
▁hàng	-5.91591
-	-5.92995
▁4	-5.93337
▁đông	-5.93967
▁quang	-5.98007
▁võ	-6.01688
▁hòa	-6.03257
▁xe	-6.0362
▁thái	-6.03987
▁sở	-6.04644
▁ty	-6.04996
▁thôn	-6.06073
▁phan	-6.09358
▁cổng	-6.09436
▁gia	-6.12243
▁bac	-6.13912
▁tâm	-6.14766
▁ngọc	-6.14789
▁bến	-6.17305
▁tốc	-6.17416
▁hải	-6.17487
▁mỹ	-6.17505
▁lý	-6.2141
▁8	-6.23517
▁kiệt	-6.24709
▁huyện	-6.25904
▁yên	-6.26915
c	-6.27794
▁5	-6.28758
▁bà	-6.2879
▁tiểu	-6.29464
▁6	-6.3327
▁7	-6.3468
▁a	-6.34929
▁ba	-6.36292
▁tây	-6.37721
2	-6.37781
▁chợ	-6.38394
▁linh	-6.38694
▁hồng	-6.4092
▁mai	-6.41212
▁tế	-6.41651
▁10	-6.42043
▁cư	-6.42581
▁đa	-6.42919
▁điện	-6.43911
▁vương	-6.454
▁nguyên	-6.45803
▁phước	-6.45865
▁từ	-6.4864
1	-6.50732
▁lâm	-6.50739
▁hóa	-6.51278
▁hoa	-6.51381
▁dân	-6.51825
▁sân	-6.53084
▁định	-6.5317
▁phòng	-6.5375
▁ngô	-6.54019
▁9	-6.54659
▁chùa	-6.55403
▁vĩnh	-6.55516
▁nghĩa	-6.56475
▁biên	-6.56586
▁phong	-6.57644
▁giang	-6.57893
▁tháng	-6.58004
▁đạo	-6.59938
▁trạm	-6.60559
▁sông	-6.61504
▁kim	-6.61823
▁hùng	-6.63342
▁y	-6.6505
▁nhân	-6.65153
▁lương	-6.65381
▁chung	-6.66248
▁thọ	-6.67141
▁quảng	-6.67945
▁châu	-6.68001
▁khoa	-6.68179
▁14	-6.6852
▁ga	-6.68928
▁hai	-6.6982
▁hữu	-6.71555
▁ngã	-6.73849
▁thông	-6.75166
▁quán	-6.75824
▁trang	-6.75867
3	-6.77096
▁chính	-6.77105
▁d	-6.77774
▁cửa	-6.78063
▁12	-6.78231
▁hội	-6.79452
▁tổ	-6.79634
▁tư	-6.80506
▁b	-6.82901
▁chi	-6.83133
▁phương	-6.84666
▁11	-6.84995
▁khánh	-6.85981
▁lạc	-6.86697
▁tôn	-6.87139
▁và	-6.87188
▁phúc	-6.87197
▁trưng	-6.88216
▁t	-6.88259
▁thắng	-6.8838
▁trọng	-6.88922
▁lộc	-6.89267
▁anh	-6.89999
▁vân	-6.90294
▁liên	-6.90918
▁18	-6.9133
▁viên	-6.91511
▁non	-6.92468
▁nghiệp	-6.92628
▁ấp	-6.9405
▁thạnh	-6.95329
▁tam	-6.95347
▁mầm	-6.96527
▁bay	-6.97158
▁phát	-6.9815
▁bùi	-6.98195
▁thuận	-6.9847
▁15	-6.99086
▁giáo	-6.99253
▁n	-6.99351
▁duy	-6.99821
d	-7.00287
▁huy	-7.00387
▁lợi	-7.01801
▁khách	-7.03033
▁huỳnh	-7.04185
▁cổ	-7.04596
▁thượng	-7.0491
▁hoà	-7.05771
▁quân	-7.06034
▁16	-7.08099
▁thủ	-7.08148
▁xóm	-7.09282
▁la	-7.09444
▁hương	-7.09739
▁vũ	-7.09815
▁c	-7.09962
▁đà	-7.10617
▁19	-7.1102
▁giáp	-7.11541
▁hiệp	-7.12007
▁tự	-7.12399
▁đô	-7.13356
▁giấy	-7.13371
▁20	-7.13952
▁du	-7.14941
▁cây	-7.15186
▁17	-7.15356
▁diện	-7.15671
▁phổ	-7.1575
▁liêm	-7.16323
▁dầu	-7.16488
▁tòa	-7.16597
▁nghệ	-7.17087
▁bạch	-7.17209
▁kênh	-7.17858
▁cà	-7.18223
▁ngân	-7.18246
m	-7.18336
▁xá	-7.18538
▁hành	-7.18588
5	-7.1994
▁hoàn	-7.20737
▁kinh	-7.20778
▁30	-7.20939
▁s	-7.22091
▁xăng	-7.22325
▁cần	-7.22789
▁tiên	-7.22797
▁tấn	-7.2343
▁tnhh	-7.23722
4	-7.23752
▁32	-7.24004
▁đào	-7.24057
▁đối	-7.24134
▁coffee	-7.24684
▁đi	-7.25027
▁tiến	-7.25328
▁suối	-7.2551
▁đặng	-7.26036
▁13	-7.26249
▁đẳng	-7.27
▁tông	-7.27648
▁thường	-7.27669
▁thcs	-7.27802
▁sạn	-7.27975
▁quan	-7.29129
▁máy	-7.29392
▁tô	-7.29504
▁22	-7.296
▁vạn	-7.29963
▁hotel	-7.30027
▁bảo	-7.30833
t	-7.31441
▁kỳ	-7.31841
▁city	-7.32106
▁ban	-7.32584
▁đỗ	-7.32993
▁thiên	-7.33188
▁làng	-7.3339
▁25	-7.33647
e	-7.33924
▁âu	-7.34222
▁chu	-7.34945
▁th	-7.35098
▁trương	-7.35204
▁ho	-7.35334
▁cai	-7.36273
▁nha	-7.36327
▁21	-7.36422
▁24	-7.36536
▁hạ	-7.36834
▁trãi	-7.36929
▁27	-7.36933
▁nhất	-7.37197
▁giới	-7.37735
▁núi	-7.3848
▁win	-7.39229
▁thánh	-7.39988
▁thờ	-7.40163
▁rạch	-7.40193
6	-7.40614
▁thu	-7.40659
▁phủ	-7.41029
▁trinh	-7.41102
▁ubnd	-7.4124
▁bộ	-7.41864
▁quý	-7.41939
▁thế	-7.4194
▁giao	-7.42173
▁28	-7.42588
▁thủy	-7.43173
▁nhơn	-7.43211
▁đoàn	-7.43282
▁bài	-7.44455
▁phê	-7.44721
▁23	-7.45463
▁thạch	-7.46254
▁đăng	-7.46397
▁thơ	-7.467
▁khai	-7.47142
▁cừ	-7.47358
▁cách	-7.48039
▁lô	-7.48414
▁petrolimex	-7.48703
▁quyền	-7.48778
▁lai	-7.48942
▁26	-7.4914
7	-7.49404
▁sắt	-7.49762
▁tài	-7.50302
▁lào	-7.50916
▁phùng	-7.52473
▁trị	-7.52842
▁tp	-7.53347
n	-7.53438
▁quế	-7.54116
▁vinh	-7.54462
▁29	-7.54897
▁xa	-7.5509
▁k	-7.55298
▁ông	-7.55345
▁nông	-7.56126
▁trà	-7.57321
▁cái	-7.58019
▁lưu	-7.58096
▁nẵng	-7.58418
▁cát	-7.58452
g	-7.59101
h	-7.59871
▁lan	-7.59872
▁kiếm	-7.60007
s	-7.60952
▁tuấn	-7.61198
▁nghỉ	-7.62223
▁đinh	-7.62244
▁cafe	-7.62314
▁the	-7.62517
▁mạng	-7.62656
▁ranh	-7.62659
▁thiện	-7.63962
▁50	-7.6413
▁40	-7.64461
▁tất	-7.64666
▁34	-7.64902
▁thất	-7.65108
▁38	-7.65132
▁39	-7.65374
▁51	-7.6658
▁động	-7.66723
▁biển	-7.66807
8	-7.66987
▁gò	-7.67302
▁37	-7.68087
▁hàm	-7.68165
▁nghi	-7.68261
▁đống	-7.68536
▁nước	-7.69182
9	-7.70175
▁láng	-7.70206
▁sa	-7.70265
▁toà	-7.70429
▁khê	-7.70483
▁36	-7.70532
▁tạp	-7.70683
▁triệu	-7.71045
▁45	-7.71206
▁di	-7.71463
▁31	-7.71591
▁thịnh	-7.71617
▁thới	-7.71901
▁cấp	-7.72114
▁đội	-7.73241
▁35	-7.73245
▁tùng	-7.73524
kv	-7.74161
▁nghị	-7.74395
▁cô	-7.74427
▁tĩnh	-7.74492
▁bãi	-7.74494
▁33	-7.75019
▁trấn	-7.75472
▁tránh	-7.75965
▁nai	-7.76262
/2	-7.76803
▁61	-7.76805
▁thăng	-7.77559
▁dục	-7.78081
▁80	-7.78714
▁sư	-7.78959
▁liệt	-7.79281
▁đt	-7.79649
▁diệu	-7.79692
▁hiến	-7.79794
▁chiểu	-7.80412
▁bánh	-7.80547
▁48	-7.80548
▁chánh	-7.80827
▁xanh	-7.81571
▁p	-7.81757
▁ủy	-7.82104
▁xuyên	-7.82607
▁55	-7.83048
▁kiều	-7.84097
▁sáu	-7.84529
▁tập	-7.85066
▁thương	-7.85068
▁46	-7.85239
▁43	-7.85327
▁nhi	-7.85375
▁vườn	-7.85396
▁sài	-7.85502
▁thi	-7.85531
▁vượt	-7.85609
/1	-7.85819
▁47	-7.85894
▁bá	-7.8606
▁khởi	-7.88033
▁44	-7.88295
▁điểm	-7.88821
▁cảnh	-7.88933
▁huệ	-7.89381
▁(	-7.89505
▁binh	-7.90649
▁thống	-7.90864
▁đằng	-7.90976
▁sản	-7.91453
▁41	-7.91464
▁hoá	-7.91738
▁thám	-7.93069
▁cẩm	-7.93536
▁lập	-7.94841
▁chinh	-7.94876
▁42	-7.9511
▁siêu	-7.95561
▁thuật	-7.95922
▁sĩ	-7.95923
▁tổng	-7.96483
▁triển	-7.96528
▁huế	-7.96653
▁hạnh	-7.96791
▁thụy	-7.97041
▁mới	-7.97872
▁tàu	-7.98001
▁ngũ	-7.98365
▁bằng	-7.99235
▁phụ	-7.99398
k	-7.99428
▁49	-7.99474
▁hàn	-7.9964
▁vào	-8.01078
▁hậu	-8.01124
▁68	-8.01199
▁park	-8.01508
▁trì	-8.01624
▁trịnh	-8.02808
p	-8.03302
▁nhật	-8.03439
▁54	-8.03462
▁lĩnh	-8.03569
▁thảo	-8.04101
▁mậu	-8.04223
▁đầu	-8.04224
.	-8.04247
▁điền	-8.05013
▁khiêm	-8.05014
▁hiền	-8.0502
▁thuốc	-8.05147
▁dịch	-8.05279
▁ct	-8.05344
▁song	-8.06406
▁vòng	-8.06479
▁thể	-8.06482
▁tháp	-8.06629
▁53	-8.06838
▁đền	-8.07043
▁phu	-8.07109
▁79	-8.07115
▁tạo	-8.07845
▁57	-8.07904
▁tri	-8.08155
▁như	-8.08298
▁phần	-8.0851
i	-8.09664
▁cống	-8.09754
▁quy	-8.09871
▁đê	-8.10239
▁gần	-8.11146
▁bidv	-8.11146
▁da	-8.11259
▁đai	-8.11627
▁đá	-8.11944
▁hoài	-8.11944
▁bưu	-8.11994
▁bách	-8.12019
▁62	-8.12121
▁dây	-8.12564
▁vũng	-8.12677
▁phụng	-8.13017
/3	-8.13064
▁xứ	-8.13421
▁500	-8.13615
▁lân	-8.13862
▁sỹ	-8.14869
▁59	-8.14884
▁sát	-8.15165
▁ích	-8.15461
▁bản	-8.15851
▁triều	-8.15895
▁viết	-8.16191
▁sinh	-8.16344
f	-8.16576
/7	-8.16648
▁63	-8.16978
▁52	-8.16999
▁hiệu	-8.1738
▁ương	-8.17392
▁trai	-8.17444
▁h	-8.17571
▁ô	-8.17952
▁vành	-8.18019
▁thụ	-8.18223
▁lịch	-8.18281
▁diễn	-8.18282
▁sao	-8.18657
/8	-8.19135
/5	-8.19262
/6	-8.19304
▁hiển	-8.19496
▁64	-8.19625
▁tuyến	-8.19803
▁agri	-8.19955
▁gòn	-8.20046
▁phù	-8.20393
▁tám	-8.2074
▁trụ	-8.21159
▁dũng	-8.21196
▁110	-8.21238
▁60	-8.21356
▁hợp	-8.21502
▁san	-8.21691
▁án	-8.22048
▁quản	-8.22244
▁91	-8.22359
▁homestay	-8.22442
▁56	-8.2306
▁bàu	-8.23094
▁mã	-8.23141
▁so	-8.23407
▁trại	-8.23553
▁cường	-8.23875
▁65	-8.2392
▁72	-8.23991
/4	-8.24136
▁ven	-8.24393
▁vi	-8.24483
10	-8.24516
▁đắk	-8.24831
▁58	-8.24901
▁nhánh	-8.24992
▁69	-8.25053
o	-8.25357
▁mỗ	-8.25803
▁trạch	-8.26143
▁phí	-8.26232
u	-8.26546
▁đài	-8.26881
▁km	-8.27293
▁lang	-8.27307
▁ký	-8.27609
▁cục	-8.27623
▁ha	-8.2771
▁cung	-8.27957
▁vietnam	-8.27972
▁khương	-8.28108
▁tiền	-8.28441
▁thuỷ	-8.2895
▁tăng	-8.29111
▁thúc	-8.29321
▁cam	-8.29467
▁thiết	-8.29788
▁ma	-8.29789
▁đàn	-8.29818
▁vận	-8.30296
▁e	-8.30352
▁hòn	-8.30515
▁70	-8.30631
▁ngãi	-8.30791
▁kiên	-8.30821
▁lam	-8.30825
▁sảnh	-8.30882
▁bún	-8.30934
▁kho	-8.31057
▁đôn	-8.31467
▁cá	-8.3147
▁66	-8.31596
▁khám	-8.31668
▁vực	-8.31839
▁chân	-8.32022
▁76	-8.32493
▁bàng	-8.32575
ng	-8.32748
▁của	-8.32808
▁garden	-8.32835
▁vụ	-8.33382
▁trí	-8.33401
▁atm	-8.33416
▁100	-8.33461
▁quỳnh	-8.33591
▁tho	-8.33715
▁pháp	-8.34114
▁cơm	-8.34275
▁co	-8.34305
▁tre	-8.34318
▁nghề	-8.34467
▁van	-8.34948
▁lò	-8.3498
▁75	-8.35092
▁01	-8.35096
▁71	-8.35375
▁tu	-8.35502
▁đất	-8.35718
▁qua	-8.35842
▁99	-8.35891
/12	-8.36008
▁tượng	-8.36079
▁cũ	-8.36621
/15	-8.3664
▁tiệm	-8.368
▁house	-8.36845
▁miền	-8.37164
▁lái	-8.37173
▁mười	-8.37347
▁bích	-8.379
▁khải	-8.38093
▁vietcom	-8.38265
▁lăng	-8.38634
▁xoay	-8.39005
▁thao	-8.39026
▁ql	-8.39421
▁r	-8.3946
▁chiến	-8.39569
▁bờ	-8.39723
▁bóng	-8.39759
▁qt	-8.3985
▁shop	-8.39961
▁tử	-8.401
/10	-8.4013
▁bát	-8.40244
▁tin	-8.40259
▁miếu	-8.40502
y	-8.40544
▁82	-8.41068
▁tt	-8.41113
▁thân	-8.41455
▁tuệ	-8.4164
▁279	-8.41811
▁84	-8.41924
▁89	-8.4196
▁m	-8.42072
▁77	-8.42091
▁liễu	-8.42212
▁ái	-8.42226
▁87	-8.42429
/11	-8.42434
▁trực	-8.42598
▁vinhomes	-8.42607
▁vấp	-8.42607
▁bửu	-8.42789
▁kp	-8.43165
▁sen	-8.43214
▁sách	-8.43781
▁xô	-8.43957
▁trâm	-8.43958
12	-8.44004
▁giải	-8.4415
▁mạc	-8.44503
▁86	-8.44744
▁67	-8.44984
▁bi	-8.4516
▁108	-8.45664
▁trọ	-8.46281
▁trỗi	-8.46322
▁dinh	-8.46548
▁ngoại	-8.46727
▁102	-8.46757
▁02	-8.46863
▁canh	-8.47385
bình	-8.48025
▁ocean	-8.4834
r	-8.48384
▁dư	-8.48437
▁chay	-8.48551
▁đàm	-8.48847
▁nga	-8.48967
▁túc	-8.49117
▁lão	-8.4917
/14	-8.4994
▁xương	-8.49986
▁ăn	-8.50013
▁103	-8.50026
▁q	-8.50385
▁85	-8.50764
▁thần	-8.51028
▁bia	-8.51274
▁sua	-8.51431
/16	-8.518
▁đế	-8.51817
▁ngữ	-8.52291
▁ch	-8.52668
▁88	-8.52995
▁105	-8.53175
▁73	-8.53337
▁mại	-8.5336
▁trúc	-8.53407
▁na	-8.53409
▁nguyen	-8.53613
▁ca	-8.53767
▁lao	-8.53799
▁môn	-8.53966
▁đỉnh	-8.54003
▁phía	-8.54072
▁phượng	-8.54219
▁sóc	-8.54242
▁my	-8.54287
▁đăk	-8.54438
▁vietin	-8.54656
▁duong	-8.547
▁spa	-8.54911
▁96	-8.54978
/9	-8.55135
▁thiều	-8.55307
▁81	-8.55497
▁tịnh	-8.55526
▁tứ	-8.55555
▁ung	-8.55793
▁trứ	-8.5594
▁phân	-8.56407
▁khuê	-8.56492
▁hô	-8.56576
▁78	-8.56758
▁truyền	-8.56848
▁khối	-8.57293
▁dong	-8.57308
▁90	-8.57329
▁national	-8.57516
▁ea	-8.57556
▁g	-8.5798
▁hảo	-8.58415
▁thùy	-8.58639
▁móng	-8.58869
▁đ	-8.59033
▁toàn	-8.59223
▁nt	-8.59706
▁highway	-8.59776
▁trước	-8.59776
▁kiến	-8.59791
▁vàng	-8.59912
▁kiểm	-8.60005
▁lực	-8.60013
▁cảng	-8.60249
▁le	-8.60277
▁107	-8.60408
▁lư	-8.60504
▁tower	-8.60645
▁74	-8.60657
▁may	-8.60743
▁tạ	-8.60962
▁chiêu	-8.61157
▁quới	-8.61388
▁cộng	-8.61389
▁95	-8.6145
▁phóng	-8.61639
▁cty	-8.61666
▁phở	-8.62561
11	-8.6293
▁nối	-8.6303
▁block	-8.63038
▁tú	-8.63313
▁83	-8.63447
▁pleiku	-8.63501
/19	-8.63517
▁son	-8.63552
▁92	-8.63643
▁restaurant	-8.63741
▁112	-8.64527
▁vinfast	-8.64694
▁f	-8.65097
▁kế	-8.65117
▁pnj	-8.65176
▁lễ	-8.65418
/20	-8.6542
▁dung	-8.65557
▁resort	-8.6585
▁bạc	-8.66105
▁nguyệt	-8.66146
▁bò	-8.66399
▁mẫu	-8.66879
▁kđt	-8.66889
▁niên	-8.66893
)	-8.67481
▁97	-8.67496
/18	-8.67543
▁đh	-8.67646
▁nhuận	-8.68114
▁03	-8.68132
▁karaoke	-8.68367
▁xây	-8.68613
▁tiếng	-8.68825
▁101	-8.68962
▁106	-8.6899
▁đồ	-8.69005
▁x	-8.6907
▁kính	-8.6962
/17	-8.69761
▁120	-8.69915
▁123	-8.70151
▁hộ	-8.70368
▁street	-8.70375
▁93	-8.70413
▁kỹ	-8.7063
▁104	-8.70681
▁tr	-8.71102
▁cửu	-8.71142
▁mì	-8.71143
▁đạt	-8.71179
▁uỷ	-8.71397
▁111	-8.71439
▁ks	-8.71637
▁tường	-8.71663
▁khang	-8.71678
▁hang	-8.7174
▁dược	-8.71912
▁đảo	-8.7217
▁saigon	-8.7243
▁mễ	-8.72431
▁lãnh	-8.7246
▁dẫn	-8.72689
▁bus	-8.72741
▁duẩn	-8.72949
l	-8.73165
▁giảng	-8.73239
▁can	-8.73376
▁hầm	-8.73472
▁biến	-8.7348
▁ốc	-8.73493
▁tuy	-8.73495
▁tố	-8.73639
▁113	-8.73667
▁rừng	-8.73735
▁tích	-8.73737
▁bán	-8.74102
▁khí	-8.74528
▁giai	-8.74681
▁đề	-8.7474
▁rịa	-8.74791
▁áp	-8.74812
▁oil	-8.75593
▁đồn	-8.75598
▁109	-8.75952
▁mi	-8.7639
▁căn	-8.76623
▁kháng	-8.76671
▁138	-8.76901
▁ở	-8.76958
▁thực	-8.77019
▁bồ	-8.77109
x	-8.77215
▁126	-8.78031
▁bội	-8.78149
▁hanoi	-8.78314
▁sự	-8.78584
▁năm	-8.78594
▁nhị	-8.78858
/13	-8.78895
▁thời	-8.78979
▁vincom	-8.79137
▁bông	-8.79156
▁mb	-8.79323
▁năng	-8.79412
▁tan	-8.80115
ấp	-8.80197
▁thoại	-8.8025
▁bỉnh	-8.80253
▁cấn	-8.80253
▁gà	-8.80256
▁nữ	-8.81095
▁thừa	-8.81095
▁v	-8.81117
▁129	-8.81201
▁đản	-8.81329
▁nhuế	-8.81381
▁nơ	-8.81589
▁đầm	-8.81664
▁plaza	-8.81664
▁98	-8.81689
▁115	-8.81724
▁bao	-8.81755
25	-8.82128
▁136	-8.82139
▁cứu	-8.82236
▁127	-8.8243
▁pv	-8.82503
an	-8.82554
▁mắt	-8.82807
▁94	-8.83061
tt	-8.8317
▁sữa	-8.83384
▁cột	-8.83391
▁150	-8.83546
▁buýt	-8.83674
▁green	-8.8369
▁118	-8.84019
j	-8.84206
/22	-8.84427
▁yến	-8.84574
▁honda	-8.84842
▁lớn	-8.84842
/	-8.84859
▁đập	-8.85136
▁lối	-8.85137
▁tràng	-8.85229
▁vp	-8.85688
▁đoạn	-8.85727
▁uyên	-8.85742
▁thư	-8.86078
▁soạn	-8.86322
▁dựng	-8.86642
▁fpt	-8.87221
▁chương	-8.87222
▁vọng	-8.87521
▁viet	-8.8772
▁ao	-8.8773
▁oai	-8.87825
▁114	-8.88026
▁139	-8.88136
▁thai	-8.88216
▁cp	-8.88428
▁kiệm	-8.88736
▁địa	-8.88745
▁trân	-8.88785
▁ánh	-8.88868
▁huyền	-8.89041
▁143	-8.89133
▁đón	-8.893
/21	-8.89384
▁ly	-8.89441
▁hoi	-8.89644
▁lệ	-8.89645
v	-8.89815
▁do	-8.89983
▁141	-8.90164
▁135	-8.90423
▁124	-8.90794
▁khoái	-8.90895
▁tuyên	-8.90901
▁đốc	-8.90906
▁bàn	-8.9091
▁144	-8.91176
▁lượng	-8.91208
▁mê	-8.91246
/24	-8.91251
▁kon	-8.91291
▁hồi	-8.91401
▁giây	-8.91522
▁05	-8.91822
▁đậu	-8.91835
▁116	-8.91986
▁117	-8.92047
▁122	-8.92085
▁toản	-8.92152
▁nút	-8.92158
▁ỷ	-8.9217
▁loan	-8.92179
▁i	-8.92395
▁133	-8.92608
▁khắc	-8.92785
▁140	-8.92875
▁vin	-8.93315
▁metro	-8.93423
▁sacom	-8.93425
/23	-8.93462
▁chỉ	-8.93735
▁dừng	-8.93743
▁hiếu	-8.93744
▁ta	-8.93836
▁liệu	-8.94065
15	-8.9415
▁dự	-8.9418
▁đỏ	-8.94389
▁thúy	-8.9472
▁ng	-8.94863
▁phó	-8.9534
▁l	-8.95621
▁bar	-8.95982
▁to	-8.96
▁duyên	-8.96034
▁sửa	-8.96155
14	-8.96194
▁ph	-8.96466
▁mường	-8.97341
▁119	-8.97511
▁tải	-8.97704
▁cốc	-8.97716
▁phi	-8.97914
▁xí	-8.97916
▁125	-8.98208
▁nậm	-8.98342
▁ân	-8.98402
▁go	-8.98421
▁hào	-8.98609
▁192	-8.98613
▁buôn	-8.98629
▁lạng	-8.98687
▁pho	-8.98898
▁đò	-8.98939
▁160	-8.98996
▁cu	-8.99401
▁175	-8.99584
▁lo	-8.99798
▁tưởng	-9.00039
▁132	-9.00292
13	-9.00476
▁mộc	-9.00814
▁oanh	-9.0107
▁151	-9.01344
▁kha	-9.01579
▁huân	-9.01762
▁tần	-9.02063
▁156	-9.02214
▁ngoc	-9.0239
▁131	-9.0255
▁mau	-9.02572
▁tea	-9.02637
▁lẩu	-9.02825
▁am	-9.03081
▁tra	-9.0347
▁thập	-9.03515
▁thuyết	-9.03516
▁doanh	-9.03522
▁04	-9.03553
▁kỵ	-9.03871
▁đèo	-9.04226
▁lạt	-9.04229
▁tảo	-9.04249
▁152	-9.04258
▁lãm	-9.04277
▁pa	-9.0446
▁xiển	-9.04583
▁121	-9.04611
▁128	-9.04795
▁tín	-9.04894
▁cù	-9.04922
▁189	-9.04953
▁là	-9.0507
▁phà	-9.05287
/29	-9.05512
▁134	-9.05542
▁chất	-9.05663
▁phuong	-9.05865
▁145	-9.05931
▁không	-9.06041
/28	-9.06138
▁phẩm	-9.06753
▁281	-9.06995
▁137	-9.0713
▁163	-9.07173
▁220	-9.07218
▁nà	-9.07346
/26	-9.07552
▁130	-9.07778
▁142	-9.07821
▁khúc	-9.07856
▁giẽ	-9.07856
▁no	-9.08071
▁nướng	-9.08602
▁162	-9.09048
▁hắc	-9.09346
▁lũy	-9.0935
▁hân	-9.0936
▁hung	-9.094
▁158	-9.09427
▁viê	-9.09601
▁sh	-9.09717
▁điều	-9.09722
▁sắc	-9.10099
/27	-9.10231
▁cháy	-9.10478
▁mây	-9.10478
▁viễn	-9.10479
/25	-9.11036
▁ngo	-9.1112
/30	-9.11278
▁độ	-9.11325
▁cẩn	-9.11623
1)	-9.12392
▁06	-9.12443
▁xuất	-9.12782
▁sỏi	-9.13176
▁một	-9.13207
▁chúa	-9.1351
▁câu	-9.13573
▁đấu	-9.13954
▁xang	-9.14079
▁,	-9.14208
▁mtv	-9.1435
▁grand	-9.14355
▁tại	-9.14402
20	-9.14686
▁205	-9.14825
▁tiết	-9.15141
▁hổ	-9.15198
nh	-9.15398
▁niệm	-9.15537
▁circle	-9.15937
▁kiêu	-9.15941
▁cả	-9.16046
▁chơn	-9.16347
▁tả	-9.16614
▁ia	-9.16656
▁vàm	-9.16689
dt	-9.16761
▁dau	-9.16817
▁161	-9.1688
▁phục	-9.16946
▁hoang	-9.16983
▁dài	-9.17558
▁sau	-9.17671
▁thì	-9.18062
▁cong	-9.18191
▁quyết	-9.18375
▁me	-9.18514
▁hoan	-9.18613
▁155	-9.18713
▁180	-9.18766
▁building	-9.18783
▁dừa	-9.18783
▁họ	-9.19015
▁168	-9.19096
▁165	-9.19128
▁lữ	-9.19196
▁sung	-9.19282
▁198	-9.19353
w	-9.19585
ga	-9.19976
▁177	-9.19989
▁bảy	-9.20035
▁tran	-9.20406
▁home	-9.2044
▁viettel	-9.20447
▁chị	-9.20497
▁de	-9.20689
▁chuyên	-9.20873
▁thứ	-9.21135
▁lầu	-9.21289
▁dốc	-9.21302
▁á	-9.21369
▁lại	-9.21714
16	-9.21722
▁bè	-9.21837
▁cho	-9.22087
▁truong	-9.22146
▁mũi	-9.22149
▁đảng	-9.22214
▁148	-9.22502
▁200	-9.22594
▁khanh	-9.22601
▁nhỏ	-9.22995
▁176	-9.23004
▁tóc	-9.23009
/36	-9.23215
▁thiếu	-9.23429
▁pizza	-9.23858
▁tdp	-9.23862
▁mall	-9.24303
▁chú	-9.24598
▁bé	-9.24686
▁xoài	-9.24733
▁tàng	-9.24756
▁thác	-9.24869
▁ra	-9.24921
▁09	-9.2503
▁sáng	-9.25178
▁tuyết	-9.25185
▁khuất	-9.25189
▁cụm	-9.25191
▁lk	-9.25402
▁and	-9.25591
▁lu	-9.25708
▁đôi	-9.25904
▁dưỡng	-9.26055
▁bùng	-9.26066
▁center	-9.26508
▁cương	-9.26509
▁sea	-9.26732
▁villa	-9.26901
▁sác	-9.26914
▁duật	-9.26942
▁côn	-9.27151
▁hostel	-9.2739
▁đổng	-9.27396
▁vina	-9.27509
18	-9.27538
▁cn	-9.27632
q	-9.27638
▁bác	-9.27664
▁dt	-9.27759
▁08	-9.2776
▁lỗ	-9.27811
▁stories	-9.27841
▁hát	-9.2785
▁trong	-9.27858
▁môi	-9.27858
▁gs	-9.27864
▁đồi	-9.27896
▁giá	-9.27922
▁tiếp	-9.28298
▁mỏ	-9.28311
▁178	-9.28426
▁vệ	-9.28709
▁171	-9.28929
▁195	-9.2917
▁chiếu	-9.29206
▁diên	-9.29249
▁com	-9.29458
▁154	-9.29586
▁lài	-9.30179
▁gỗ	-9.30589
▁vu	-9.30635
▁lãng	-9.30655
▁188	-9.3069
▁179	-9.3075
▁bo	-9.30782
19	-9.31035
▁café	-9.3152
▁chế	-9.31556
▁149	-9.31567
▁pin	-9.31716
▁lược	-9.31989
▁bơi	-9.32022
▁lôi	-9.32082
▁kết	-9.32125
▁station	-9.32461
▁tráng	-9.32465
▁nh	-9.32534
▁sứ	-9.32765
▁school	-9.32901
▁187	-9.3296
▁267	-9.32968
/31	-9.32976
▁nhàn	-9.32989
▁181	-9.3303
▁trục	-9.33035
▁172	-9.33384
▁xưởng	-9.33411
▁bbq	-9.33412
▁út	-9.33466
▁tinh	-9.33526
/32	-9.33543
▁xi	-9.33812
▁07	-9.33816
/40	-9.33855
▁mặt	-9.33889
▁vật	-9.33889
▁golden	-9.33891
▁thích	-9.33894
▁147	-9.33952
▁trâu	-9.34374
▁đan	-9.34508
▁su	-9.34563
17	-9.34788
▁làn	-9.34825
▁hạt	-9.34852
▁biểu	-9.34857
▁mạnh	-9.34858
▁146	-9.3492
▁beach	-9.35342
▁thuế	-9.3536
▁hem	-9.35392
▁view	-9.35411
▁193	-9.35439
▁mua	-9.35474
▁bt	-9.35766
▁207	-9.35783
▁lục	-9.35826
▁thuột	-9.35826
▁cự	-9.36297
▁bướu	-9.36809
▁in	-9.36831
▁ý	-9.36834
▁nang	-9.36901
▁chữa	-9.36927
▁than	-9.3708
/34	-9.37099
▁chư	-9.37249
▁hướng	-9.37306
▁vien	-9.37367
▁cua	-9.37413
▁hãn	-9.37751
▁lãn	-9.37752
▁giản	-9.37759
▁167	-9.37977
▁kh	-9.38021
▁trả	-9.38056
▁183	-9.38098
▁giếng	-9.38302
▁cau	-9.38387
▁bênh	-9.38388
▁gi	-9.38768
▁khẩu	-9.38804
▁luật	-9.38804
▁nại	-9.38809
▁khuyến	-9.38823
▁hạch	-9.38881
▁173	-9.38899
▁đến	-9.38935
▁199	-9.39324
▁166	-9.3952
▁sn	-9.39713
▁295	-9.39884
▁201	-9.39901
▁tẻ	-9.40294
▁bưởi	-9.40327
▁153	-9.40546
▁159	-9.40588
▁mở	-9.40841
▁hóc	-9.40857
/37	-9.41189
/33	-9.4132
▁lắk	-9.41355
▁phật	-9.41355
▁trăng	-9.41357
▁chào	-9.41374
▁acb	-9.41409
▁bơ	-9.41798
▁mẹ	-9.41808
▁op	-9.41875
▁khát	-9.41877
▁liêu	-9.41878
▁174	-9.4212
▁quỳ	-9.42384
▁hầu	-9.42397
▁đen	-9.42468
/38	-9.42542
▁tủ	-9.42654
▁petro	-9.42686
▁238	-9.42831
▁star	-9.42963
▁con	-9.43198
▁lã	-9.43256
▁sương	-9.43452
▁sky	-9.43467
▁tl	-9.43783
▁đổi	-9.4398
▁j	-9.43984
▁cân	-9.44001
▁ii	-9.44052
▁169	-9.44315
▁với	-9.44505
▁riêng	-9.44506
▁ảnh	-9.44506
▁duyệt	-9.44521
▁hằng	-9.44523
▁kcn	-9.44544
▁new	-9.44559
▁em	-9.44703
▁tum	-9.45288
▁o	-9.45486
▁tuyển	-9.45579
▁hcmc	-9.45737
▁ka	-9.45762
▁aeon	-9.4587
▁duc	-9.45903
▁227	-9.45914
▁trạc	-9.46068
▁trảng	-9.46145
▁dĩ	-9.46265
▁yết	-9.46679
▁170	-9.46997
▁tà	-9.47129
▁190	-9.4714
▁đắc	-9.47208
▁biệt	-9.47212
▁ti	-9.47272
▁đạ	-9.4735
▁182	-9.4737
▁bảng	-9.47402
▁830	-9.47407
▁164	-9.47423
▁man	-9.47459
▁banh	-9.47522
▁229	-9.47903
▁bính	-9.48317
▁cầm	-9.48317
▁qu	-9.48807
▁riverside	-9.48866
▁mân	-9.4888
▁cay	-9.48924
▁184	-9.48934
▁196	-9.48951
▁194	-9.49235
▁phiên	-9.49376
▁sô	-9.49534
▁vo	-9.49639
▁kí	-9.4973
▁phả	-9.49973
▁krông	-9.49986
▁sun	-9.50084
▁230	-9.50116
/43	-9.50117
ch	-9.50244
▁tộ	-9.50345
▁store	-9.50589
▁tâ	-9.50677
/45	-9.50797
▁256	-9.50827
▁hong	-9.50829
▁263	-9.50853
▁đo	-9.51049
▁vung	-9.51152
▁giám	-9.51215
▁211	-9.51376
▁chui	-9.51386
▁khe	-9.51425
▁tha	-9.51508
▁tuân	-9.51695
0	-9.5226
▁xuyến	-9.52266
▁cưới	-9.52843
▁ngưu	-9.52859
▁tram	-9.52993
▁li	-9.5307
▁mini	-9.53071
▁pha	-9.53126
▁sang	-9.53233
▁191	-9.53296
▁mươi	-9.53426
▁lũng	-9.53433
▁cf	-9.53754
▁tràm	-9.53967
▁nhung	-9.54042
▁xu	-9.5409
▁tầng	-9.54095
▁mạch	-9.54161
▁độc	-9.54306
▁river	-9.54596
▁nghiêm	-9.54605
▁đáng	-9.54728
▁250	-9.54792
▁bái	-9.54975
30	-9.55091
▁tiêu	-9.55215
▁cồn	-9.55317
▁212	-9.55667
▁chả	-9.5571
▁giam	-9.55761
▁3/2	-9.5612
▁197	-9.56169
▁rộng	-9.56384
▁thuyên	-9.56396
▁túy	-9.5653
▁hh	-9.56538
▁central	-9.56986
▁nhì	-9.57536
▁nhậm	-9.57592
▁ni	-9.57658
▁tống	-9.57686
▁u	-9.5775
▁trail	-9.57771
▁186	-9.57801
er	-9.57814
▁lức	-9.58202
▁ngang	-9.58297
▁noi	-9.5847
▁tx	-9.58471
/41	-9.58562
▁giồng	-9.5886
▁208	-9.59049
▁khả	-9.59273
▁ngầm	-9.59433
▁măng	-9.59434
▁vịnh	-9.59443
▁221	-9.59879
▁261	-9.59934
▁hoc	-9.6033
▁cỏ	-9.60352
▁204	-9.60606
▁chè	-9.60614
▁hđnd	-9.60679
▁doãn	-9.60681
▁257	-9.608
▁báo	-9.60827
▁tựu	-9.60986
▁743	-9.61101
▁hưởng	-9.61309
▁rồng	-9.61313
▁post	-9.61344
▁260	-9.61582
/39	-9.61778
▁va	-9.61901
▁quầy	-9.6194
▁đèn	-9.61942
▁hơi	-9.61946
▁đây	-9.61947
▁nhiệt	-9.61949
▁thự	-9.62396
▁club	-9.62593
▁eco	-9.6271
▁hcm	-9.62725
▁210	-9.62775
▁tộc	-9.6279
▁dai	-9.62964
▁thiêm	-9.63225
▁giót	-9.63267
▁vy	-9.6332
▁cáp	-9.6335
▁185	-9.63389
▁lá	-9.63398
▁quoc	-9.63914
/42	-9.63988
/35	-9.64136
▁236	-9.64211
▁217	-9.64223
▁219	-9.64407
▁234	-9.64464
▁nhu	-9.64515
▁bị	-9.64528
▁hủ	-9.64564
▁mòn	-9.6458
▁danh	-9.64641
co	-9.64865
▁tru	-9.64963
▁202	-9.65089
▁hình	-9.65167
▁thầy	-9.65167
▁củ	-9.65403
▁hán	-9.65671
▁nhậu	-9.65825
▁ðạo	-9.65825
▁luông	-9.6583
▁các	-9.65835
▁382	-9.66202
▁trẻ	-9.66491
▁nhiên	-9.66495
▁bể	-9.66505
▁24/7	-9.66694
▁157	-9.66765
▁231	-9.66942
▁225	-9.67018
▁246	-9.6705
▁vị	-9.67079
▁218	-9.67091
z	-9.67236
▁209	-9.67347
▁270	-9.67387
▁bạt	-9.67834
▁kẻ	-9.67837
▁985	-9.68113
▁ki	-9.68258
24	-9.68375
/44	-9.68613
▁pham	-9.68712
▁international	-9.6918
▁rạp	-9.6918
▁quần	-9.69181
▁រ	-9.6922
/48	-9.69358
▁hu	-9.69399
▁nho	-9.69479
đ	-9.69525
▁tai	-9.6965
▁沿边公路	-9.69865
▁cúc	-9.6998
▁237	-9.70369
▁be	-9.70522
▁tuyền	-9.7056
▁bền	-9.70568
▁đx	-9.70602
▁cờ	-9.7062
▁residence	-9.71199
▁213	-9.71226
▁bê	-9.71247
▁mương	-9.71253
▁chủ	-9.71379
▁market	-9.71405
▁ngon	-9.71734
▁dãy	-9.71966
▁224	-9.71969
▁king	-9.7201
▁lành	-9.72042
▁bộc	-9.72426
▁tngo	-9.7258
▁khâm	-9.72653
▁family	-9.72653
▁giữa	-9.72822
▁si	-9.72925
▁đêm	-9.73042
▁mộ	-9.73118
▁chà	-9.73267
▁hới	-9.73362
▁206	-9.73508
▁vang	-9.73598
▁304	-9.73657
▁242	-9.73767
le	-9.73954
▁266	-9.73972
▁kỷ	-9.74081
▁xích	-9.74094
▁tiêm	-9.74097
/49	-9.74117
▁răng	-9.74796
▁tba	-9.74818
▁215	-9.74945
▁245	-9.75034
▁tang	-9.75067
22	-9.75217
▁gốm	-9.75521
01	-9.75562
▁mẫn	-9.76251
▁âm	-9.76251
▁salon	-9.76256
▁uống	-9.76257
▁áng	-9.76566
▁282	-9.7657
ong	-9.76575
on	-9.76856
▁tươi	-9.76994
▁tác	-9.77044
▁bang	-9.77045
▁đúc	-9.77738
▁kề	-9.77741
▁293	-9.77752
▁259	-9.77943
/47	-9.78266
▁hoạch	-9.78474
▁thuý	-9.78491
▁live	-9.78494
▁rang	-9.78574
▁hi	-9.7866
▁hanh	-9.78982
in	-9.79218
▁ngạc	-9.79225
▁thuỵ	-9.79227
▁hưu	-9.79232
▁of	-9.79236
▁áo	-9.79271
▁tay	-9.79323
▁kdc	-9.79436
23	-9.79671
/46	-9.79682
▁goertek	-9.79984
▁dụng	-9.79999
▁liền	-9.8005
▁thuy	-9.80266
▁254	-9.8037
▁pasteur	-9.80746
▁vỹ	-9.80746
▁bưng	-9.80757
▁bầu	-9.8076
▁group	-9.80764
▁z	-9.8081
▁đang	-9.80813
▁239	-9.80905
/50	-9.80941
la	-9.81092
▁214	-9.81182
▁247	-9.8123
▁thú	-9.81414
▁apartment	-9.81466
▁kép	-9.81515
▁thiệu	-9.81515
▁chứng	-9.81517
▁thiêu	-9.81523
▁huyên	-9.8154
▁gate	-9.81606
▁tơ	-9.81746
▁273	-9.81768
▁280	-9.81837
▁sam	-9.82119
▁khoang	-9.82131
▁tắc	-9.8229
▁vinschool	-9.82291
▁huong	-9.82303
▁tiếu	-9.82304
▁dạy	-9.82306
▁275	-9.82313
▁tính	-9.82401
▁giã	-9.83017
▁thổ	-9.83045
▁boulevard	-9.83071
▁luyện	-9.83071
▁nhuệ	-9.83073
▁giàu	-9.83082
tổ	-9.83344
▁331	-9.83649
▁vie	-9.83772
▁ðình	-9.83859
▁290	-9.84025
▁pe	-9.84166
▁thiền	-9.84605
▁hoằng	-9.84652
▁thẩm	-9.84652
▁tiệc	-9.84652
▁lotteria	-9.84653
▁hoành	-9.84731
▁235	-9.84783
▁299	-9.84803
▁thang	-9.84832
ing	-9.85421
▁royal	-9.85451
▁vọt	-9.85453
▁pháo	-9.85456
▁xáng	-9.85811
▁hair	-9.8596
02	-9.86093
▁276	-9.86119
▁bế	-9.86144
▁hớn	-9.86259
▁lotte	-9.86259
▁243	-9.8631
▁252	-9.86323
▁cx	-9.86508
▁cha	-9.86529
▁massage	-9.87072
▁bất	-9.87083
▁times	-9.87097
▁đạm	-9.87185
▁đương	-9.87202
▁265	-9.87441
▁371	-9.87614
▁395	-9.87768
▁border	-9.87891
▁boutique	-9.87891
▁tình	-9.87891
▁xẻo	-9.87891
▁điếm	-9.87891
▁226	-9.8845
▁nguy	-9.88572
▁ứng	-9.88718
▁hỷ	-9.88721
▁huê	-9.88723
▁351	-9.88732
▁302	-9.88861
▁359	-9.89319
kp	-9.89339
▁thuỳ	-9.89551
▁tấm	-9.89551
▁quất	-9.89552
▁hiểm	-9.89553
▁269	-9.89592
▁lạch	-9.89755
▁phuc	-9.89883
▁road	-9.90392
▁gạo	-9.90394
▁beauty	-9.90398
▁tương	-9.90412
▁385	-9.90795
en	-9.91134
▁company	-9.91239
▁lựu	-9.91243
▁300	-9.91326
▁258	-9.91336
▁mơ	-9.91398
▁giác	-9.91595
▁362	-9.92056
▁miễu	-9.92094
▁chiều	-9.92095
▁khôi	-9.92123
▁ap	-9.92234
▁sơ	-9.92533
lo	-9.92751
▁trác	-9.92922
▁bên	-9.92942
▁happy	-9.92953
▁rẫy	-9.92956
▁thưởng	-9.9296
▁mo	-9.9296
▁ne	-9.92963
▁cháo	-9.92964
▁chơi	-9.92966
▁chanh	-9.93011
▁uy	-9.93044
▁làm	-9.9314
đường	-9.93307
▁228	-9.9347
▁ben	-9.93476
▁mô	-9.93725
▁bí	-9.93762
▁bakery	-9.93825
▁lậy	-9.93825
▁village	-9.93829
▁pearl	-9.93833
▁285	-9.94225
▁240	-9.9442
▁268	-9.94452
▁vn	-9.94468
08	-9.94637
▁chuẩn	-9.94703
▁phenikaa	-9.94703
▁203	-9.94801
▁tien	-9.94806
▁yen	-9.94872
▁784	-9.95029
▁222	-9.95151
▁dê	-9.95371
▁đu	-9.9541
▁gió	-9.95497
▁district	-9.95588
▁palace	-9.95595
▁kem	-9.95638
▁232	-9.95649
▁him	-9.95718
▁bu	-9.95775
▁223	-9.96119
▁963	-9.96161
▁422	-9.96284
▁có	-9.96381
▁trời	-9.9648
▁233	-9.96679
▁mang	-9.96686
▁sử	-9.96984
▁ngự	-9.96999
▁golf	-9.97385
▁về	-9.97386
▁chuối	-9.97389
▁quyến	-9.9739
▁vă	-9.97392
▁sapa	-9.97403
▁chủng	-9.97413
▁rue	-9.9742
▁ơn	-9.9747
+	-9.97738
▁hạp	-9.97821
▁319	-9.97865
▁334	-9.98139
▁ngu	-9.98212
▁chuyển	-9.9829
▁cat	-9.98305
26	-9.9832
▁272	-9.98416
▁tranh	-9.98437
▁241	-9.98517
▁317	-9.98589
▁thức	-9.98703
/55	-9.98943
▁339	-9.99092
▁qa	-9.99214
▁bôi	-9.99235
▁255	-9.99237
▁thien	-9.99269
▁chấp	-9.99274
▁vua	-9.99366
/51	-9.99423
▁gai	-9.99621
ê	-9.99794
/56	-9.99999
▁court	-10.0013
▁gấm	-10.0013
▁ward	-10.0013
▁ngư	-10.0015
▁chức	-10.0016
▁nhạc	-10.0016
▁trình	-10.0021
khu	-10.0058
03	-10.006
88	-10.0064
07	-10.0075
▁481	-10.0087
▁216	-10.0089
▁khô	-10.0096
▁nhữ	-10.0104
▁đĩnh	-10.0107
▁complex	-10.0107
▁gốc	-10.0107
▁ក	-10.0112
▁beer	-10.0113
▁chua	-10.0143
▁248	-10.0152
39	-10.0182
▁khẩn	-10.0201
▁huấn	-10.0201
▁tuần	-10.0201
▁320	-10.0202
▁ktx	-10.0202
29	-10.0202
▁345	-10.0207
ri	-10.0218
▁pt	-10.0221
▁by	-10.0259
▁cc	-10.0268
▁trú	-10.0275
▁360	-10.0295
▁chấn	-10.0297
▁tm	-10.0297
▁điển	-10.0298
▁lừ	-10.0393
21	-10.0401
▁lòng	-10.0406
▁mao	-10.0408
al	-10.0434
▁262	-10.0447
▁495	-10.0448
▁farm	-10.0472
▁lung	-10.0497
▁341	-10.0499
▁310	-10.0511
▁phổi	-10.0545
28	-10.0577
▁ko	-10.0579
▁galaxy	-10.0588
▁quê	-10.0593
▁vé	-10.0599
▁phuoc	-10.06
▁ẩm	-10.0687
▁giày	-10.0688
▁vì	-10.0691
▁318	-10.071
huyện	-10.0726
▁bành	-10.0749
▁st	-10.076
▁caphe	-10.0787
▁giuộc	-10.0787
▁giặt	-10.0787
▁gạch	-10.0787
▁lâu	-10.0788
▁kiện	-10.0788
▁lệnh	-10.079
▁xuan	-10.0794
▁mr	-10.0794
▁297	-10.0795
▁cuốn	-10.0796
40	-10.0801
▁cò	-10.0813
▁vui	-10.0826
▁296	-10.0827
04	-10.0853
▁398	-10.0854
▁624	-10.0869
▁mixue	-10.0888
▁đước	-10.0888
▁thép	-10.0888
▁sâm	-10.0889
▁chau	-10.0891
▁5-6	-10.0899
▁dao	-10.0907
▁blue	-10.0922
▁283	-10.0938
▁chín	-10.0946
38	-10.0972
3)	-10.0976
▁384	-10.0984
▁lửa	-10.099
▁ngạn	-10.099
▁hiểu	-10.099
▁điệp	-10.099
▁diamond	-10.099
▁sâu	-10.099
▁office	-10.0992
1-	-10.0992
▁lake	-10.0999
▁town	-10.1004
▁tốn	-10.1006
▁381	-10.1012
▁988	-10.1023
▁kè	-10.1027
▁292	-10.1032
▁nhat	-10.1035
▁379	-10.106
▁981	-10.1068
▁315	-10.1073
▁286	-10.108
ll	-10.1091
▁exim	-10.1093
▁đoan	-10.1097
▁one	-10.1116
▁hue	-10.1128
▁284	-10.1133
▁phe	-10.1151
▁land	-10.1154
/54	-10.1157
/53	-10.1179
▁307	-10.118
▁253	-10.1195
▁ruby	-10.1197
▁kiểng	-10.1198
52	-10.1199
▁hèm	-10.1201
▁ngôi	-10.1202
▁big	-10.1204
▁303	-10.123
/61	-10.1231
▁975	-10.1235
▁518	-10.1238
▁294	-10.1255
▁356	-10.1277
th	-10.1287
▁masteri	-10.1303
▁nghiệm	-10.1303
▁tánh	-10.1306
▁bếp	-10.1307
▁dien	-10.1312
▁dị	-10.1324
▁390	-10.1326
▁thục	-10.1329
/60	-10.1331
▁đán	-10.1348
▁30/4	-10.1384
▁quá	-10.1393
▁ổ	-10.1402
▁mỳ	-10.1409
▁ngòi	-10.1409
▁dạ	-10.1416
▁980	-10.1416
▁bồi	-10.1421
▁445	-10.1428
▁305	-10.1435
xã	-10.1465
tân	-10.1467
▁thịt	-10.1472
▁thc	-10.1477
▁298	-10.1479
▁cs	-10.1487
/52	-10.1504
▁chờ	-10.1517
▁601	-10.1519
▁thốt	-10.1521
/57	-10.1524
▁338	-10.1524
▁cán	-10.1539
▁tim	-10.1547
▁615	-10.155
▁251	-10.1576
▁306	-10.1578
▁dực	-10.158
▁thận	-10.1625
▁chxd	-10.1625
▁ecopark	-10.1625
▁đuong	-10.1627
▁dan	-10.1634
▁ky	-10.1636
-09	-10.1645
▁né	-10.1673
▁hom	-10.1675
05	-10.1698
re	-10.1702
▁288	-10.1715
▁hy	-10.1716
▁337	-10.1719
do	-10.1725
31	-10.1729
▁mật	-10.1735
▁244	-10.1739
▁249	-10.1742
▁quát	-10.1742
▁336	-10.177
▁746	-10.1782
hcm	-10.1789
▁lên	-10.1791
▁dv	-10.1822
▁dụ	-10.1827
▁đướng	-10.1846
▁cấm	-10.1846
▁phái	-10.1846
▁travel	-10.1848
▁tái	-10.1849
▁vib	-10.1856
▁phim	-10.1871
▁312	-10.19
▁đư	-10.1915
▁cú	-10.1928
▁274	-10.1949
▁trắng	-10.1958
▁cấu	-10.1958
▁trên	-10.1961
▁treo	-10.1975
▁1,	-10.1978
▁521	-10.2042
34	-10.2054
▁đặc	-10.2072
▁landmark	-10.2072
45	-10.2074
▁studio	-10.2078
▁nghiên	-10.208
▁loa	-10.208
▁khuông	-10.2089
phú	-10.2115
▁bon	-10.2132
▁314	-10.215
land	-10.2158
▁han	-10.2165
es	-10.2173
▁1-	-10.2173
▁289	-10.2182
▁sạc	-10.2183
▁rào	-10.2187
▁nhiêu	-10.2187
▁lấp	-10.2192
▁bien	-10.2194
▁tản	-10.22
▁325	-10.2206
et	-10.2212
/59	-10.2259
ma	-10.2265
▁chúc	-10.227
▁490	-10.2276
▁centre	-10.2303
▁sapphire	-10.2303
▁riềng	-10.2303
▁te	-10.2304
▁bồng	-10.2319
▁cọ	-10.2322
▁377	-10.2339
▁343	-10.2346
▁/	-10.237
▁hố	-10.2389
▁bun	-10.2391
▁373	-10.2411
▁907	-10.2417
▁cambodia	-10.2421
▁chiêm	-10.2422
▁nốt	-10.2422
▁gym	-10.2423
▁coc	-10.2427
▁ngà	-10.243
/62	-10.2431
▁tap	-10.2441
▁đơn	-10.2443
▁978	-10.245
▁loi	-10.2466
▁333	-10.2476
▁387	-10.2482
▁389	-10.2504
09	-10.2507
27	-10.2522
▁dã	-10.2536
▁ve	-10.2538
▁người	-10.254
▁luxury	-10.254
▁quyên	-10.2542
▁crm	-10.2542
▁xưa	-10.2545
é	-10.2547
▁tray	-10.2548
▁huu	-10.2556
▁bom	-10.2566
na	-10.2573
▁747	-10.259
▁353	-10.2602
▁308	-10.2609
▁277	-10.2617
▁429	-10.262
35	-10.2656
▁nhiệm	-10.266
▁muối	-10.2661
▁ptth	-10.2661
48	-10.2671
ha	-10.2709
▁võng	-10.2709
▁cl	-10.2734
▁hd	-10.2735
▁thp	-10.2738
cô	-10.2739
▁sai	-10.2744
▁nghĩ	-10.2744
▁322	-10.276
▁danang	-10.2783
▁soát	-10.2783
▁quách	-10.2783
▁sào	-10.2783
▁buffet	-10.2783
▁phô	-10.2784
▁gold	-10.2787
▁benh	-10.2791
▁w	-10.2796
▁4-5	-10.2801
ra	-10.2806
▁gara	-10.2806
ta	-10.2811
▁nôi	-10.282
▁637	-10.2876
▁mon	-10.2876
▁hạc	-10.2878
▁361	-10.2895
▁428	-10.2895
▁trái	-10.2906
is	-10.2912
▁chải	-10.2917
▁915	-10.2939
▁tạm	-10.2947
vi	-10.2965
▁ngh	-10.2968
li	-10.2979
▁tá	-10.2983
/64	-10.2993
▁sanh	-10.3013
37	-10.3013
▁shb	-10.3018
▁378	-10.3024
▁nghè	-10.3027
▁dalat	-10.3031
▁mặc	-10.3031
▁bươu	-10.3031
▁tiện	-10.3032
▁lien	-10.3033
2)	-10.3037
▁tphcm	-10.3037
▁tròn	-10.3046
▁380	-10.3054
▁nem	-10.3057
▁kv	-10.3067
▁pc	-10.3074
▁321	-10.3074
▁301	-10.3075
-1	-10.3081
▁628	-10.3104
sa	-10.3128
36	-10.3137
▁313	-10.3147
▁west	-10.3158
▁vegan	-10.316
▁264	-10.317
▁350	-10.3217
▁gom	-10.3221
▁639	-10.3235
▁374	-10.3236
▁817	-10.3243
▁ht	-10.3268
▁thon	-10.3282
▁factory	-10.3285
▁mối	-10.3286
▁marie	-10.3287
▁hiên	-10.3287
▁mobile	-10.3291
▁bít	-10.3296
▁725	-10.3298
-10	-10.3307
▁sức	-10.3338
▁voi	-10.3338
06	-10.3343
63	-10.335
▁961	-10.3381
oo	-10.3384
▁342	-10.3385
▁pu	-10.3394
▁airport	-10.341
▁bamboo	-10.3415
▁nhựt	-10.3415
▁thoàn	-10.3416
▁trợ	-10.3416
▁364	-10.3417
▁for	-10.3419
01-	-10.342
▁yêm	-10.3423
▁820	-10.3426
▁tham	-10.3438
▁bike	-10.3454
▁tên	-10.3465
▁323	-10.3484
▁324	-10.3517
▁bì	-10.3542
/66	-10.3545
▁kéo	-10.3547
▁nhổn	-10.3547
▁tịch	-10.3547
▁vượng	-10.3548
▁gamuda	-10.3548
▁diêu	-10.3549
▁sushi	-10.3549
▁mega	-10.355
▁nàng	-10.3558
▁367	-10.3566
▁hut	-10.3577
▁466	-10.3579
47	-10.3581
▁gas	-10.3624
▁hc	-10.3625
▁bốn	-10.368
▁giầy	-10.368
▁mắm	-10.368
▁cgv	-10.368
▁nghé	-10.3681
▁ván	-10.3681
▁sét	-10.3682
▁nạn	-10.3689
▁vịt	-10.3694
69	-10.3707
▁cang	-10.372
▁rau	-10.372
▁969	-10.3723
▁769	-10.3732
-16	-10.374
▁609	-10.374
▁hon	-10.3747
▁328	-10.3803
▁bù	-10.3807
58	-10.3812
▁nhượng	-10.3816
▁457	-10.3818
▁400	-10.3835
▁tung	-10.3839
▁đak	-10.3855
▁26/3	-10.3856
▁354	-10.3859
▁865	-10.388
▁541	-10.3892
▁mu	-10.39
▁399	-10.3909
▁458	-10.3912
▁lim	-10.3915
▁456	-10.3917
▁816	-10.3918
▁sim	-10.3947
mi	-10.3949
▁vĩ	-10.3952
▁curie	-10.3952
▁kitchen	-10.3952
▁tennis	-10.3952
▁giáng	-10.3962
-3	-10.3981
▁357	-10.4003
77	-10.4004
▁thpt	-10.4013
▁278	-10.4014
▁973	-10.4017
▁515	-10.402
▁352	-10.4056
▁tê	-10.4058
▁461	-10.4064
▁cạn	-10.4087
59	-10.4088
741	-10.409
▁vùng	-10.4091
▁thước	-10.4092
▁khóm	-10.4092
▁point	-10.4096
▁ព	-10.4097
▁sê	-10.4102
us	-10.4111
nam	-10.4125
▁côi	-10.4137
ly	-10.4137
▁372	-10.4159
▁gian	-10.416
▁309	-10.4178
▁dang	-10.4186
▁419	-10.4228
▁sậy	-10.4232
▁technology	-10.4232
▁tầm	-10.4232
▁vấn	-10.4232
▁place	-10.4235
▁thơm	-10.4237
▁dệt	-10.4237
▁mình	-10.4238
/73	-10.4252
▁520	-10.4252
/58	-10.4266
/68	-10.4276
▁786	-10.4277
▁donga	-10.4278
▁cồ	-10.4292
▁271	-10.431
▁417	-10.4314
thôn	-10.4318
▁612	-10.4325
to	-10.4342
49	-10.4357
▁quả	-10.4364
▁diệp	-10.4375
▁duệ	-10.4379
1/1	-10.4386
▁406	-10.4393
▁đong	-10.4396
▁don	-10.4399
-4	-10.4417
68	-10.4424
▁tn	-10.4429
or	-10.4435
▁652	-10.4448
▁se	-10.4449
ngõ	-10.446
▁311	-10.4466
trung	-10.4468
▁908	-10.4484
▁410	-10.4496
▁re	-10.45
▁gu	-10.4507
▁hospital	-10.452
▁sầm	-10.452
▁lotus	-10.452
▁lạnh	-10.4522
▁467	-10.4524
▁ray	-10.4531
▁ham	-10.4535
▁thuong	-10.4535
02-	-10.46
▁418	-10.4623
▁451	-10.4632
▁335	-10.4648
▁614	-10.466
▁bai	-10.4661
▁vô	-10.4662
▁giờ	-10.4664
▁nhựa	-10.4667
▁taxi	-10.4667
▁yersin	-10.4668
▁bường	-10.467
ap	-10.467
▁ស	-10.4671
▁cạnh	-10.4672
▁techcom	-10.4673
▁terminal	-10.4677
▁477	-10.4679
▁tàm	-10.4688
ol	-10.4691
▁thuan	-10.4702
-03	-10.4709
▁287	-10.4712
▁330	-10.4724
▁983	-10.4733
▁629	-10.4744
▁487	-10.4756
▁rai	-10.4764
ka	-10.4777
▁765	-10.4783
ki	-10.4793
▁bach	-10.4799
▁vinhome	-10.4812
▁foresa	-10.4816
▁rạng	-10.4816
▁head	-10.4816
▁hường	-10.4817
▁dường	-10.482
▁thợ	-10.482
▁đệ	-10.4828
▁bơm	-10.4838
▁lông	-10.4866
▁chim	-10.4867
▁926	-10.488
▁602	-10.4882
03-	-10.4894
▁0	-10.4899
▁pi	-10.49
at	-10.4916
vũng	-10.4916
▁402	-10.4918
/63	-10.4919
▁366	-10.494
▁394	-10.4941
2-	-10.4957
▁cắt	-10.4968
▁kạn	-10.4968
▁coop	-10.4969
▁bút	-10.4973
▁băng	-10.4974
▁ត	-10.4975
▁mui	-10.4976
▁world	-10.4978
▁tau	-10.498
33	-10.4983
▁phat	-10.4988
di	-10.4997
▁554	-10.5047
▁479	-10.5049
nhà	-10.5076
▁346	-10.5092
▁nuôi	-10.5122
▁hệ	-10.5123
▁paris	-10.5123
▁auto	-10.5125
▁xom	-10.5126
▁béo	-10.5131
50	-10.5132
▁ri	-10.5135
▁480	-10.5155
▁636	-10.5156
/71	-10.5174
▁291	-10.5174
▁548	-10.5176
▁885	-10.5182
▁tro	-10.5185
▁423	-10.5188
sh	-10.5204
▁640	-10.5216
▁482	-10.5225
me	-10.5236
▁cố	-10.5237
▁369	-10.5238
▁965	-10.524
▁460	-10.5246
▁trận	-10.5278
▁viềng	-10.5278
▁xử	-10.5278
▁thiếp	-10.5279
▁dâu	-10.5279
▁kiếp	-10.5279
/65	-10.5281
▁pccc	-10.5283
▁chiên	-10.5284
▁dh	-10.5291
▁clb	-10.5321
▁lon	-10.5335
▁net	-10.5344
▁khoan	-10.5352
▁606	-10.5362
▁4/5	-10.5388
thanh	-10.5393
▁392	-10.5393
▁409	-10.5396
▁giữ	-10.5398
▁chữ	-10.5398
▁332	-10.5406
▁475	-10.5407
chi	-10.5428
▁lồ	-10.5435
!	-10.5437
▁chicken	-10.5437
▁cậu	-10.5437
▁galliéni	-10.5437
▁mực	-10.5437
▁trữ	-10.5437
▁nghách	-10.5437
▁fuel	-10.5437
▁cdm	-10.5437
▁ngộ	-10.5437
▁nghiễn	-10.5437
▁máu	-10.5438
▁413	-10.5442
▁bào	-10.546
32	-10.5467
▁art	-10.5478
ti	-10.5484
▁hao	-10.5492
ang	-10.5496
▁327	-10.55
▁922	-10.5511
hi	-10.5512
00	-10.5541
▁420	-10.5552
ế	-10.5562
▁436	-10.5572
▁bố	-10.5573
▁bột	-10.559
▁lụa	-10.5598
▁sunrise	-10.5598
▁sunshine	-10.5598
▁tật	-10.5598
▁đới	-10.5598
▁vinmec	-10.5598
▁toyota	-10.5598
▁xèo	-10.5598
▁tuổi	-10.5598
▁trầm	-10.5598
▁thiệp	-10.5599
▁416	-10.56
▁vồng	-10.5601
▁bs	-10.5605
▁cave	-10.5606
▁ម	-10.5609
▁dd	-10.5612
▁986	-10.5639
▁toan	-10.5681
phước	-10.571
▁thí	-10.5759
▁bistro	-10.5762
▁trôm	-10.5762
▁vựa	-10.5762
▁good	-10.5762
▁flc	-10.5762
▁dragon	-10.5762
▁caffe	-10.5762
▁chăm	-10.5762
▁thuần	-10.5763
▁sóng	-10.5768
▁thong	-10.5807
ko	-10.5814
5-	-10.5824
▁tôm	-10.5833
▁ôn	-10.5853
▁845	-10.5857
▁819	-10.5867
▁688	-10.5874
▁538	-10.5881
▁sat	-10.5892
▁396	-10.5897
st	-10.5923
▁miến	-10.5924
as	-10.5926
▁góc	-10.5928
▁đã	-10.5929
▁zone	-10.5939
anh	-10.5944
▁512	-10.5975
si	-10.5979
▁358	-10.5987
5/1	-10.5993
▁491	-10.6007
55	-10.6055
▁411	-10.6056
▁326	-10.6089
▁391	-10.6091
▁vegetarian	-10.6098
▁vsip	-10.6098
▁363	-10.6098
▁mốc	-10.6099
▁kiểu	-10.6099
▁mần	-10.6099
▁tước	-10.6099
▁ngụy	-10.6099
▁khoáng	-10.61
▁vôi	-10.6102
▁cựu	-10.6107
▁ấn	-10.6108
▁bèo	-10.6109
▁quynh	-10.6111
▁việc	-10.6112
▁quay	-10.6119
▁401	-10.6151
▁768	-10.6171
▁phối	-10.6192
te	-10.6208
▁nô	-10.621
▁502	-10.6212
coffee	-10.6218
lộc	-10.6218
▁463	-10.622
▁ong	-10.623
▁lũ	-10.6258
▁nguyê	-10.6261
▁little	-10.627
▁tmcp	-10.627
▁guesthouse	-10.627
▁lốp	-10.6271
▁để	-10.6271
▁sổ	-10.6272
▁keo	-10.6272
▁luong	-10.6274
▁huyết	-10.6274
▁dl	-10.6275
▁yê	-10.6279
▁hãng	-10.6288
▁kieu	-10.6288
▁phìn	-10.6289
▁329	-10.6302
▁huynh	-10.631
▁rô	-10.6325
▁686	-10.6328
▁837	-10.634
▁433	-10.6346
▁bin	-10.6384
60	-10.6405
▁ngọ	-10.6412
51	-10.6413
▁26/7	-10.6415
▁al	-10.6416
▁dc	-10.643
▁đam	-10.6434
▁ngan	-10.6438
89	-10.6439
▁academy	-10.6446
▁lăk	-10.6446
▁mặn	-10.6446
▁ltd	-10.6446
▁samsung	-10.6446
▁huổi	-10.6446
▁lở	-10.6446
▁five	-10.6446
▁vải	-10.6446
▁riêu	-10.6446
▁rẽ	-10.6446
▁búp	-10.6447
▁dòng	-10.645
/78	-10.645
▁347	-10.6455
▁421	-10.6457
▁492	-10.6513
go	-10.6518
-08	-10.652
▁709	-10.652
▁tuan	-10.653
hà	-10.653
▁559	-10.6546
▁883	-10.6551
▁542	-10.6584
▁562	-10.6586
▁782	-10.6591
▁831	-10.6592
▁lac	-10.6608
▁già	-10.6611
70	-10.6612
ơ	-10.6619
▁sùng	-10.6624
▁vlxd	-10.6624
▁marina	-10.6624
▁nhiếp	-10.6624
▁đoài	-10.6624
▁pond	-10.6624
▁ngoài	-10.6625
▁local	-10.6625
▁nhâm	-10.6628
54	-10.663
▁gành	-10.6631
▁sạch	-10.6632
▁time	-10.6637
▁yang	-10.6647
▁viêt	-10.6657
▁cóc	-10.6662
▁984	-10.6677
▁927	-10.669
/77	-10.6703
▁689	-10.6708
de	-10.6758
▁643	-10.6774
▁435	-10.6776
▁toa	-10.6781
▁ngàn	-10.6789
▁queen	-10.6802
hồ	-10.6805
eleven	-10.6806
▁calmette	-10.6806
▁diệm	-10.6806
▁nhuộm	-10.6806
▁maritime	-10.6806
▁lucky	-10.6806
▁island	-10.6806
▁mekong	-10.6806
▁uông	-10.6807
▁lẻ	-10.6807
▁khoảng	-10.6808
▁biện	-10.6808
▁bôn	-10.6809
▁mộng	-10.6812
▁chỉnh	-10.6813
▁au	-10.6815
▁vong	-10.6818
-5	-10.6819
▁xà	-10.6825
▁cáo	-10.6834
▁nghia	-10.6839
▁ru	-10.6846
4-	-10.685
▁464	-10.6854
▁coco	-10.6854
▁sx	-10.6856
▁mông	-10.6856
▁moon	-10.687
-6	-10.6872
▁que	-10.6872
▁kê	-10.6882
▁864	-10.6894
▁987	-10.6909
▁405	-10.6914
▁nhan	-10.6939
bg	-10.6961
▁823	-10.6969
▁dr	-10.6976
▁nhã	-10.6986
il	-10.6988
▁industry	-10.6991
▁lounge	-10.6991
▁pickleball	-10.6991
▁phấn	-10.6992
▁mỡ	-10.6992
▁valley	-10.6995
▁nỗ	-10.6995
▁trích	-10.7
bis	-10.7
▁575	-10.7
▁mía	-10.7
▁họng	-10.7003
▁red	-10.7009
ic	-10.704
un	-10.7047
▁370	-10.7048
▁thung	-10.7064
▁666	-10.7075
▁thinh	-10.709
▁00	-10.7099
▁phuo	-10.7105
-2	-10.7113
▁7-	-10.712
▁427	-10.7123
▁945	-10.7126
▁chan	-10.7126
▁ja	-10.7129
▁dì	-10.7175
▁becamex	-10.718
▁ruộng	-10.718
▁miễn	-10.718
▁capital	-10.718
▁xốm	-10.7181
▁luân	-10.7181
▁mọc	-10.7181
▁mèo	-10.7181
▁yêu	-10.7183
▁911	-10.7196
▁at	-10.72
-12	-10.7207
▁đáp	-10.7224
/67	-10.7235
▁967	-10.7243
▁chill	-10.7256
gi	-10.7282
ă	-10.7286
▁383	-10.7349
/85	-10.7353
▁565	-10.7367
-15	-10.7369
▁tiệp	-10.7372
▁màu	-10.7373
▁khế	-10.7373
▁hiep	-10.7374
▁đẹp	-10.7374
▁mục	-10.7379
ee	-10.7384
▁mùa	-10.7405
▁pet	-10.7423
▁hè	-10.7431
▁789	-10.7432
▁gh	-10.7433
46	-10.7469
▁dat	-10.7485
▁car	-10.7491
8/1	-10.7499
▁nu	-10.7501
▁496	-10.7506
▁hông	-10.751
41	-10.7522
▁528	-10.7523
▁368	-10.7533
15,	-10.7536
▁514	-10.7541
▁376	-10.7548
▁bó	-10.7555
▁dủổng	-10.7568
▁khỏe	-10.7568
▁điềm	-10.7568
▁showroom	-10.7568
▁tttm	-10.7569
▁trống	-10.7569
▁miêu	-10.7569
▁airlines	-10.757
▁403	-10.757
▁heo	-10.7571
▁úc	-10.7576
44	-10.7577
▁574	-10.7579
▁thải	-10.7579
▁546	-10.7587
▁chàm	-10.759
▁huyen	-10.7591
/70	-10.7592
▁pub	-10.7628
▁tieu	-10.7632
▁dx	-10.7652
▁827	-10.7661
/72	-10.7668
749	-10.7674
▁868	-10.7674
▁449	-10.7687
▁chai	-10.7691
san	-10.7692
▁397	-10.7698
/75	-10.7701
trả	-10.7716
3/2	-10.7717
ok	-10.7734
▁505	-10.7759
▁415	-10.7759
▁dn	-10.7761
▁bv	-10.7761
▁bô	-10.7766
▁imperia	-10.7767
▁355	-10.7768
▁nhập	-10.7768
▁polytechnic	-10.7768
▁toán	-10.7768
▁ðức	-10.7768
▁hsbc	-10.7768
▁vnvc	-10.7768
▁vinpearl	-10.7768
▁trùng	-10.7771
53	-10.7775
▁ល	-10.7775
▁nóng	-10.7776
▁bung	-10.779
▁khảm	-10.7794
▁344	-10.7796
▁nail	-10.7803
▁hien	-10.7808
▁lau	-10.7821
▁678	-10.7832
▁trào	-10.7833
▁nx	-10.7837
/79	-10.7842
tra	-10.786
▁489	-10.7888
/69	-10.7911
▁439	-10.7913
phường	-10.7921
▁730	-10.7944
99	-10.7947
▁ts	-10.7955
▁600	-10.7959
ur	-10.7966
▁bạn	-10.7966
▁mềm	-10.7973
▁rửa	-10.7973
▁vnpt	-10.7973
▁550	-10.7973
▁quỹ	-10.7973
▁area	-10.7973
▁chuyền	-10.7973
▁phiêu	-10.7973
▁hutech	-10.7973
▁sunny	-10.7973
▁tdtt	-10.7973
▁chăn	-10.7974
▁lùng	-10.7974
▁motor	-10.7976
▁tòng	-10.7976
▁chuông	-10.7977
▁abc	-10.7978
▁mát	-10.7979
▁mipec	-10.7982
▁đạp	-10.7985
▁iii	-10.7985
▁lúa	-10.7987
▁nghinh	-10.7996
▁930	-10.8029
▁lat	-10.8032
om	-10.8046
▁657	-10.8046
▁340	-10.8062
▁441	-10.8075
▁ton	-10.8099
▁459	-10.811
house	-10.8125
▁932	-10.8133
▁ya	-10.814
▁tk	-10.8142
▁po	-10.8159
▁814	-10.8168
▁537	-10.817
▁coffe	-10.8175
ro	-10.8178
▁corner	-10.8181
▁bặc	-10.8181
▁jollibee	-10.8181
▁sakura	-10.8181
▁đẩu	-10.8181
▁nhứt	-10.8181
▁huề	-10.8181
▁hill	-10.8183
-01	-10.8186
744-	-10.8191
▁vnm	-10.8199
▁nhon	-10.8203
▁xôi	-10.8214
▁campuchia	-10.8215
▁khau	-10.8221
▁nhanh	-10.8223
▁el	-10.8225
▁365	-10.8234
▁hn	-10.8242
▁ms	-10.8255
▁909	-10.8259
▁lin	-10.8283
65	-10.8289
▁ro	-10.8291
el	-10.8302
▁702	-10.8314
▁348	-10.8318
long	-10.832
▁634	-10.8323
ni	-10.8337
nguyễn	-10.8342
▁484	-10.8347
▁386	-10.835
so	-10.835
▁nhôm	-10.8394
▁vặt	-10.8394
▁中越边界	-10.8394
▁dntn	-10.8394
▁vạc	-10.8394
▁pool	-10.8394
▁rose	-10.8395
▁tướng	-10.8396
▁giàng	-10.8399
▁ice	-10.8404
▁dông	-10.8405
▁orb	-10.8405
▁só	-10.8411
▁loc	-10.8442
▁527	-10.8452
▁465	-10.8459
▁ai	-10.8473
/84	-10.8481
▁493	-10.8497
ia	-10.8502
▁494	-10.8504
▁thố	-10.8504
42	-10.8523
▁469	-10.8528
67	-10.8536
▁485	-10.8552
▁cụ	-10.8582
▁min	-10.8583
▁sg	-10.8586
66	-10.86
▁dream	-10.8607
▁photocopy	-10.8611
▁hỏa	-10.8611
▁university	-10.8611
▁bida	-10.8611
▁yoga	-10.8611
▁hiện	-10.8613
▁cuối	-10.8613
▁hoạt	-10.8615
▁pgd	-10.8618
▁cót	-10.8628
▁tao	-10.8629
▁ke	-10.8644
ct	-10.8644
▁gon	-10.8647
▁638	-10.8652
▁he	-10.8655
76	-10.8665
ir	-10.8678
▁697	-10.8696
va	-10.8703
os	-10.8707
/80	-10.8737
▁gianh	-10.8748
ho	-10.8749
▁448	-10.8754
/76	-10.8758
ie	-10.8763
▁434	-10.878
tỉnh	-10.8783
▁414	-10.8795
▁532	-10.8804
cơ	-10.8805
▁992	-10.8824
▁hài	-10.883
▁miên	-10.883
▁alley	-10.8833
▁cặp	-10.8833
▁oasis	-10.8833
▁khoát	-10.8835
▁tỷ	-10.8836
▁thàng	-10.8836
▁diễm	-10.8839
▁khach	-10.8839
▁mâm	-10.8839
▁ống	-10.8848
▁453	-10.885
▁nham	-10.8869
▁ci	-10.8878
▁631	-10.8883
▁dk	-10.889
▁462	-10.889
▁558	-10.889
ge	-10.8895
▁lay	-10.8933
▁thuê	-10.8949
oi	-10.8954
▁982	-10.8978
ủy	-10.898
▁duo	-10.8989
▁316	-10.8995
market	-10.9008
trần	-10.9009
chùa	-10.901
▁mù	-10.9017
▁506	-10.9021
▁620	-10.9024
▁câ	-10.9037
▁388	-10.904
ne	-10.9055
64	-10.906
▁lầm	-10.906
▁vinamilk	-10.906
▁ðiện	-10.906
▁ðề	-10.906
▁gdnn	-10.906
▁campus	-10.9061
▁đuống	-10.9061
▁quạt	-10.9062
▁tree	-10.9071
▁pô	-10.9071
▁pom	-10.9084
▁cánh	-10.9089
▁nay	-10.9104
▁hap	-10.9105
lan	-10.9138
▁533	-10.9145
▁896	-10.9146
▁ngựa	-10.9159
▁685	-10.9199
▁kid	-10.9219
000	-10.9231
▁507	-10.9258
▁việ	-10.9263
▁dưa	-10.9265
▁thô	-10.9279
▁chử	-10.9291
▁charm	-10.9293
▁flower	-10.9293
▁gửi	-10.9293
▁mobifone	-10.9293
▁pắc	-10.9293
▁aqua	-10.9293
▁lớp	-10.9293
▁lợn	-10.9294
▁kiết	-10.9294
▁dũ	-10.9294
▁phách	-10.9295
tr	-10.9297
▁sport	-10.9299
▁parking	-10.9303
▁chúng	-10.9306
▁516	-10.9324
▁doi	-10.9329
▁ku	-10.9333
▁lí	-10.936
▁bong	-10.9363
79	-10.9374
▁936	-10.9378
▁thy	-10.9378
▁440	-10.938
▁587	-10.9386
▁622	-10.9388
▁on	-10.9398
▁943	-10.9403
▁826	-10.9429
▁432	-10.944
it	-10.9463
▁ns	-10.9465
kdc	-10.9479
suối	-10.948
▁sc	-10.9488
75	-10.9494
▁khoai	-10.9513
ru	-10.9513
no	-10.9516
▁motorbike	-10.9526
▁guest	-10.9531
▁english	-10.9531
▁fushan	-10.9531
▁luận	-10.9531
▁lời	-10.9531
▁mipecorp	-10.9531
▁premier	-10.9531
▁temple	-10.9531
▁xếp	-10.9531
▁yamaha	-10.9531
▁đéc	-10.9531
▁trưởng	-10.9531
▁thuyền	-10.9532
▁ưu	-10.9533
▁mít	-10.9533
▁hói	-10.9535
43	-10.9536
▁509	-10.9539
▁white	-10.9539
▁palm	-10.954
▁497	-10.9542
▁ង	-10.9548
▁850	-10.9571
pa	-10.9582
▁kong	-10.9594
▁khi	-10.9595
▁gan	-10.9609
▁966	-10.9616
lê	-10.9618
▁499	-10.9624
▁tồn	-10.9658
▁872	-10.9672
▁sin	-10.9679
▁625	-10.9707
▁793	-10.971
▁412	-10.9718
▁thoa	-10.9719
city	-10.9728
90	-10.9729
ai	-10.9734
▁lap	-10.9735
ed	-10.9736
4/1	-10.9757
▁hb	-10.976
▁vò	-10.9771
:	-10.9775
▁buồm	-10.9775
▁gallery	-10.9775
▁milano	-10.9775
▁mountain	-10.9775
▁retreat	-10.9775
▁louis	-10.9775
▁amata	-10.9775
▁trầu	-10.9776
▁smile	-10.9777
▁stop	-10.9778
▁niêu	-10.9779
▁nui	-10.9782
▁vuong	-10.9785
▁củi	-10.9787
▁kids	-10.9795
▁villas	-10.9803
▁nơi	-10.9804
▁721	-10.981
▁chao	-10.981
▁508	-10.9821
▁tech	-10.9826
son	-10.9829
▁dak	-10.9833
▁zen	-10.9839
▁nv	-10.9855
/82	-10.9857
em	-10.9862
▁551	-10.9865
▁878	-10.9871
▁996	-10.9871
▁848	-10.9876
▁468	-10.9898
▁545	-10.9909
▁hp	-10.9919
▁chó	-10.9946
78	-10.9959
▁748	-10.9979
▁555	-10.9982
▁trù	-11.001
▁cưng	-11.0011
am	-11.0012
▁rơ	-11.0012
ana	-11.0015
▁bụi	-11.0025
▁ciputra	-11.0025
▁dật	-11.0025
▁fahasa	-11.0025
▁lưới	-11.0025
▁rượu	-11.0025
▁singapore	-11.0025
▁drive	-11.0025
▁old	-11.0025
▁vẽ	-11.0026
▁sấy	-11.0026
▁cở	-11.0028
▁rông	-11.0031
▁ngọt	-11.0035
▁nguye	-11.0038
▁đáy	-11.0065
▁đóng	-11.0069
su	-11.0079
▁98/1	-11.0088
▁high	-11.0099
▁444	-11.0105
-8	-11.0107
▁928	-11.0114
▁426	-11.0121
▁526	-11.0124
▁mot	-11.014
▁430	-11.0146
▁gio	-11.0146
▁19/5	-11.0158
▁539	-11.0161
▁oc	-11.0182
/90	-11.0184
▁inn	-11.0198
▁thá	-11.0199
▁ar	-11.02
hải	-11.0204
ô	-11.0206
▁ghi	-11.0211
▁we	-11.0212
-02	-11.0212
98	-11.0217
▁349	-11.0219
▁921	-11.0229
▁sol	-11.023
▁552	-11.0241
▁442	-11.0249
ợ	-11.0257
▁nhớ	-11.0275
▁burger	-11.0278
▁heights	-11.0281
▁hựu	-11.0281
▁mcdonald	-11.0281
▁military	-11.0281
▁nhẫn	-11.0281
▁nếnh	-11.0281
▁pagoda	-11.0281
▁pharmacy	-11.0281
▁dứa	-11.0281
▁cream	-11.0282
▁vmm	-11.0282
▁giống	-11.0282
▁thầu	-11.0284
▁deli	-11.0285
▁517	-11.0287
▁thach	-11.0287
▁760	-11.0287
▁vuon	-11.0288
bo	-11.0289
▁maison	-11.0299
▁residences	-11.03
▁vietjet	-11.031
▁800	-11.0312
ine	-11.0318
▁bat	-11.0334
-11	-11.0336
▁450	-11.0356
▁787	-11.0358
▁437	-11.0359
▁mar	-11.0364
▁ak	-11.0366
▁676	-11.0384
▁583	-11.0389
93	-11.039
▁luc	-11.0394
▁kì	-11.0405
▁pá	-11.0421
▁hư	-11.0423
▁ama	-11.0438
tech	-11.0442
▁má	-11.0459
▁đc	-11.0463
phạm	-11.0493
▁lanh	-11.0497
ề	-11.0502
▁clinic	-11.0545
▁sặt	-11.0545
▁topaz	-11.0545
▁trắc	-11.0545
▁wyndham	-11.0545
▁nhuần	-11.0545
▁huống	-11.0545
▁motel	-11.0545
▁trồng	-11.0546
▁cứ	-11.0546
▁nổi	-11.0548
ar	-11.0553
▁đă	-11.0578
▁404	-11.0581
▁đòn	-11.0583
▁thoi	-11.0591
▁711	-11.0594
▁781	-11.0594
ke	-11.0596
▁tốt	-11.0618
▁879	-11.0629
72	-11.0633
▁fu	-11.064
▁669	-11.0652
▁675	-11.0669
/86	-11.068
▁549	-11.0683
▁hot	-11.0694
nd	-11.07
▁lux	-11.0714
▁757	-11.0729
ò	-11.0742
▁756	-11.0745
ị	-11.075
um	-11.0769
▁br	-11.0773
▁vh	-11.0777
ts	-11.078
▁us	-11.0783
▁566	-11.0793
ớ	-11.0802
▁683	-11.0804
▁455	-11.0805
▁bungalow	-11.081
▁field	-11.0815
▁bdvhx	-11.0815
▁geleximco	-11.0815
▁keangnam	-11.0815
▁legend	-11.0815
▁luxshare	-11.0815
▁thegioididong	-11.0815
▁rice	-11.0815
▁phõ	-11.0816
▁mùng	-11.0818
▁backpackers	-11.0819
▁baby	-11.0819
▁523	-11.0819
▁hills	-11.0821
▁nguyền	-11.0822
▁game	-11.0832
▁sala	-11.0845
op	-11.0847
▁424	-11.0851
▁623	-11.0852
▁mái	-11.0871
▁qui	-11.0875
▁375	-11.0903
▁xua	-11.0912
cs	-11.0915
▁bui	-11.093
ry	-11.0931
▁877	-11.0936
▁pg	-11.0939
▁kien	-11.094
ông	-11.0941
▁664	-11.0954
▁561	-11.0954
▁503	-11.0969
▁673	-11.0979
▁536	-11.098
▁soi	-11.0984
▁tràn	-11.0988
▁486	-11.0996
▁dam	-11.1003
▁thọc	-11.1016
▁776	-11.1022
ệ	-11.1028
▁fe	-11.1031
mo	-11.1033
ẻ	-11.1034
71	-11.1037
way	-11.1041
minh	-11.1047
▁tiê	-11.1049
▁619	-11.1051
-07	-11.1053
▁mạ	-11.106
▁933	-11.1061
▁quô	-11.1065
ph	-11.1065
▁trọc	-11.108
▁đổ	-11.1082
▁sàn	-11.109
山	-11.1093
▁bẹnh	-11.1093
▁entrance	-11.1093
▁khéo	-11.1093
▁paradise	-11.1093
▁tulip	-11.1093
▁ayun	-11.1093
▁ếch	-11.1093
▁btxm	-11.1093
▁ép	-11.1094
▁chiềng	-11.1094
▁gõ	-11.1094
▁hỗ	-11.1094
▁trừng	-11.1094
▁hòe	-11.1096
▁ngoong	-11.1097
▁sến	-11.1099
▁táo	-11.1099
▁canon	-11.1099
▁vtm	-11.11
▁bối	-11.1101
▁lũm	-11.1105
▁cap	-11.1115
▁jo	-11.1133
▁tie	-11.1137
-20	-11.1139
▁bồn	-11.1144
-06	-11.1146
▁431	-11.1147
▁698	-11.1152
ya	-11.1191
▁699	-11.1198
.1	-11.1206
▁pan	-11.1208
62	-11.1228
hưng	-11.1236
à	-11.126
▁564	-11.1263
▁560	-11.1264
▁1-2	-11.1267
bi	-11.1276
▁đao	-11.1284
ân	-11.1291
▁447	-11.1295
wa	-11.1298
▁741	-11.1323
vietnam	-11.1326
▁408	-11.1326
▁994	-11.1334
▁top	-11.1342
▁họa	-11.1358
▁588	-11.1362
▁mâ	-11.1362
▁mả	-11.1369
▁fashion	-11.1378
▁hẽm	-11.1378
▁mập	-11.1378
▁thắm	-11.1378
▁power	-11.1379
▁ấu	-11.1379
▁khiếu	-11.1379
▁rổ	-11.1379
▁khái	-11.1379
▁avenue	-11.138
▁milk	-11.1381
▁ບ	-11.1382
▁casa	-11.1383
▁chàng	-11.1389
▁room	-11.1392
▁lát	-11.141
▁vt	-11.1425
▁msb	-11.1425
▁891	-11.1428
▁leo	-11.1431
▁vip	-11.1438
▁ic	-11.1438
▁940	-11.1443
ung	-11.1448
▁611	-11.1461
▁chọn	-11.1481
▁613	-11.1486
▁thot	-11.1493
▁767	-11.1498
▁3-	-11.1521
▁nê	-11.1521
▁443	-11.1521
▁647	-11.1527
4/3	-11.1541
▁2/9	-11.1542
-05	-11.1544
ệt	-11.1547
▁nb	-11.1568
▁3/1	-11.1569
▁838	-11.1592
▁777	-11.1597
▁pro	-11.1616
-27	-11.163
kim	-11.1636
▁mia	-11.1637
4/40	-11.1639
/81	-11.1645
▁hau	-11.1646
▁chò	-11.1664
▁653	-11.1666
▁726	-11.1669
▁nón	-11.1671
▁mong	-11.1672
▁alivia	-11.1672
▁bật	-11.1672
▁gầm	-11.1672
▁tắm	-11.1672
▁viẹn	-11.1672
▁ueh	-11.1673
▁tourist	-11.1673
▁khiết	-11.1673
▁space	-11.1673
▁liễn	-11.1673
▁sìn	-11.1674
▁fitness	-11.1675
▁nhạn	-11.1675
▁tours	-11.1678
▁lồng	-11.1678
▁dĩnh	-11.1678
▁488	-11.1682
▁tour	-11.1686
pi	-11.1689
▁kar	-11.1702
▁life	-11.1703
ck	-11.1704
▁trun	-11.1712
lu	-11.172
74	-11.1725
/95	-11.1732
▁wa	-11.1736
▁sp	-11.1744
▁bă	-11.1783
▁pos	-11.1785
▁nom	-11.1791
56	-11.1796
▁579	-11.1798
▁569	-11.1802
▁kb	-11.1805
.2	-11.1818
09-	-11.1819
▁766	-11.1828
▁919	-11.1856
ạ	-11.1875
▁đâ	-11.1907
up	-11.1917
ter	-11.1917
▁trâ	-11.1918
▁lane	-11.1921
ngọc	-11.1925
▁lee	-11.1934
▁bd	-11.1962
▁chơ	-11.1971
/83	-11.1972
▁buddha	-11.1976
▁craft	-11.1976
▁cận	-11.1976
▁manhattan	-11.1976
▁nấu	-11.1976
▁phận	-11.1976
▁ấm	-11.1976
т	-11.1976
▁đuờng	-11.1976
▁nhĩ	-11.1976
▁quí	-11.1976
▁barber	-11.1976
▁suites	-11.1977
▁chẽ	-11.1977
▁manor	-11.1977
▁650000	-11.1977
▁duyện	-11.1978
hoa	-11.1978
▁square	-11.1978
▁billiards	-11.1978
▁nộ	-11.198
▁citi	-11.1981
-23	-11.1982
▁kichi	-11.1982
▁bùn	-11.1983
▁hinh	-11.1983
▁gdtx	-11.1983
▁rùa	-11.1984
▁xinh	-11.1987
▁quyen	-11.1987
▁phao	-11.1991
▁fa	-11.1993
▁trách	-11.1994
▁sports	-11.1998
▁825	-11.2007
▁den	-11.2009
▁nhum	-11.2013
▁sm	-11.2016
▁photo	-11.2025
▁chang	-11.2054
ny	-11.2063
▁525	-11.2064
▁điên	-11.2064
ên	-11.2067
/89	-11.2071
▁rác	-11.2075
▁972	-11.2086
▁truc	-11.211
▁498	-11.2127
▁511	-11.2128
▁605	-11.2178
▁941	-11.2179
▁cuu	-11.2187
-13	-11.2189
▁kia	-11.2195
/99	-11.2198
ty	-11.2209
▁693	-11.2222
▁535	-11.2229
▁kd	-11.2236
▁kô	-11.2238
2/1	-11.2241
▁476	-11.2242
▁454	-11.2251
▁fi	-11.2256
▁lâ	-11.2258
ue	-11.2267
õ	-11.2279
▁sà	-11.2282
▁501	-11.2284
▁south	-11.2287
▁cozy	-11.2288
▁domaine	-11.2288
▁nhận	-11.2288
▁nâu	-11.2288
▁nắng	-11.2288
▁tokyu	-11.2288
村	-11.2288
▁gaming	-11.2288
▁lakeview	-11.2288
▁trấu	-11.2288
▁hợi	-11.2288
▁hớt	-11.2289
▁miện	-11.2289
▁dép	-11.2289
▁phức	-11.229
▁sũ	-11.2291
▁wang	-11.2291
▁cmt	-11.2295
▁វ	-11.2296
▁ngach	-11.2296
▁ngọn	-11.2298
▁cụt	-11.2298
▁124/22	-11.2308
▁700	-11.2311
/106	-11.2316
7/1	-11.2318
6/2	-11.2323
▁755	-11.2327
▁557	-11.2331
▁chk	-11.2339
▁595	-11.2342
▁570	-11.235
▁men	-11.2351
▁aha	-11.2358
▁up	-11.2359
▁000	-11.2361
▁hq	-11.2375
▁moi	-11.2396
▁đạc	-11.2399
▁cám	-11.2431
▁656	-11.2435
▁thua	-11.2447
▁687	-11.2458
▁425	-11.2477
▁khat	-11.2489
96	-11.2491
▁704	-11.2504
▁1194	-11.2506
▁534	-11.2518
▁863	-11.2528
/87	-11.2537
▁dâng	-11.2542
▁677	-11.2546
▁cuc	-11.2548
▁553	-11.255
tml	-11.2556
campuchia	-11.2558
quốc	-11.2559
tiểu	-11.256
imex	-11.2562
-04	-11.2565
80	-11.2569
▁dươ	-11.258
▁lội	-11.258
▁hen	-11.2591
▁liê	-11.2596
▁714	-11.2597
▁cinema	-11.2605
61	-11.261
▁bridge	-11.2611
▁commune	-11.2611
▁depot	-11.2611
▁juice	-11.2611
▁sấu	-11.2611
▁vinbus	-11.2611
▁nguyện	-11.2611
▁vingroup	-11.2611
▁garage	-11.2611
▁trieu	-11.2614
▁đìa	-11.2617
▁bón	-11.2618
▁lóc	-11.262
▁nuoc	-11.262
▁tiem	-11.2621
▁neo	-11.2621
▁650	-11.2621
▁cuong	-11.2624
▁nhât	-11.2631
▁641	-11.264
▁biang	-11.2654
▁wind	-11.2654
▁cọc	-11.267
▁ding	-11.2708
▁633	-11.2718
▁đơ	-11.2733
▁27/9	-11.2746
/97	-11.2749
▁568	-11.2755
▁hạn	-11.2766
/94	-11.2787
▁446	-11.2794
▁627	-11.2795
▁bot	-11.2806
▁1/4	-11.2809
▁kao	-11.282
▁2)	-11.2825
ico	-11.2833
cha	-11.2844
▁524	-11.2844
▁kt	-11.2858
▁thìn	-11.2867
ws	-11.2868
▁470	-11.2868
5/24	-11.2872
home	-11.2882
▁ư	-11.2882
▁771	-11.2897
ku	-11.29
▁mt	-11.2904
ura	-11.2909
▁quýt	-11.2931
▁xuâ	-11.2939
3/12	-11.294
▁hamlet	-11.2944
▁khấu	-11.2944
▁pacific	-11.2944
▁tattoo	-11.2944
▁bứa	-11.2944
▁seoul	-11.2944
▁vư	-11.2944
▁harmony	-11.2944
▁rental	-11.2944
▁toại	-11.2944
▁truòng	-11.2944
▁estella	-11.2944
▁khói	-11.2945
▁iris	-11.2945
▁kĩ	-11.2946
▁marketing	-11.2947
▁phán	-11.2947
▁thùng	-11.2947
▁dô	-11.2951
▁thôi	-11.2951
▁hoạ	-11.2952
▁651	-11.2963
▁uni	-11.2965
thu	-11.2986
lk	-11.3001
▁172/10	-11.3003
▁gd	-11.3004
▁you	-11.3008
▁giò	-11.3022
▁999	-11.3025
▁750	-11.3029
▁cảm	-11.3034
▁bee	-11.3046
▁958	-11.3054
▁line	-11.3061
▁che	-11.3064
▁hl	-11.3078
▁920	-11.3082
▁đua	-11.3092
ql	-11.3095
▁petrol	-11.3107
á	-11.3125
▁654	-11.3136
▁sườn	-11.3145
▁655	-11.3145
▁bis	-11.3151
▁phung	-11.3152
▁616	-11.3157
▁mam	-11.317
▁35/1	-11.3181
▁796	-11.319
-14	-11.319
▁as	-11.3195
▁chin	-11.3197
thpt	-11.3236
túy	-11.3237
▁703	-11.3245
▁thử	-11.3252
▁asia	-11.3253
ow	-11.3259
▁438	-11.3274
▁lạn	-11.3281
bt	-11.3283
▁water	-11.3284
▁lươn	-11.3285
▁trư	-11.3286
▁ngụ	-11.3287
thị	-11.3288
’	-11.3289
▁bắn	-11.3289
▁dưới	-11.3289
▁eurowindow	-11.3289
▁kẹo	-11.3289
▁rành	-11.3289
▁venice	-11.3289
▁ôtô	-11.3289
▁victoria	-11.3289
▁camping	-11.3289
▁thảnh	-11.3289
▁tmdv	-11.3289
▁gội	-11.3289
▁muoi	-11.3289
▁khổng	-11.329
▁trê	-11.329
▁mĩ	-11.329
▁ភ	-11.329
▁lường	-11.3291
▁dức	-11.3291
▁alumin	-11.3292
▁dơi	-11.3293
▁1074	-11.3294
▁nuong	-11.3298
▁ngành	-11.3302
▁đệm	-11.3307
▁apartments	-11.3312
een	-11.3312
▁light	-11.332
▁quôc	-11.3326
▁tảng	-11.3328
â	-11.3341
▁lua	-11.3344
ã	-11.3371
▁hud	-11.3399
▁sy	-11.341
-24	-11.3434
▁phai	-11.3438
/104	-11.344
▁càu	-11.3455
▁645	-11.3475
▁618	-11.3487
▁585	-11.3492
3/11	-11.3495
/93	-11.3497
ến	-11.3508
ci	-11.352
3/30	-11.3522
.3	-11.353
ủ	-11.3546
▁design	-11.3547
▁moc	-11.3586
▁778	-11.3597
▁824	-11.3614
▁1128	-11.3627
▁hả	-11.3633
▁backpacker	-11.3641
▁đhqg	-11.3645
▁free	-11.3646
▁hyundai	-11.3646
▁laundry	-11.3646
▁number	-11.3646
▁não	-11.3646
▁csgt	-11.3646
▁media	-11.3646
▁viewpoint	-11.3646
▁dùng	-11.3647
▁ngói	-11.3647
▁xnk	-11.3648
▁ន	-11.3649
▁khoẻ	-11.3649
▁hieu	-11.365
▁săng	-11.3651
▁pò	-11.3651
▁nghiep	-11.3652
▁td	-11.3655
▁diem	-11.3656
▁ទ	-11.3656
▁783	-11.3658
wn	-11.3659
▁tạnh	-11.3663
▁540	-11.3664
▁pác	-11.3667
▁ford	-11.3672
▁vdb	-11.3673
▁khuyên	-11.3675
▁772	-11.3696
▁ce	-11.3703
▁day	-11.3709
▁khoi	-11.3713
▁viêm	-11.3722
4,	-11.3738
▁kiền	-11.3742
▁xd	-11.3748
▁búng	-11.3757
▁572	-11.3773
▁25/4	-11.3784
▁hạo	-11.3792
▁594	-11.3792
▁ori	-11.3804
-18	-11.3811
▁483	-11.3811
▁695	-11.3819
▁875	-11.3822
eco	-11.384
▁ria	-11.3841
▁xo	-11.385
ễ	-11.3851
6,	-11.3853
▁om	-11.3865
▁873	-11.387
▁ó	-11.3875
▁719	-11.3883
ation	-11.3893
▁vins	-11.3902
van	-11.3903
▁thuc	-11.3921
ien	-11.3944
ita	-11.3948
town	-11.3954
▁mac	-11.3962
việt	-11.3965
▁871	-11.3966
bệnh	-11.3975
▁đươ	-11.3978
ấ	-11.3983
▁truo	-11.3991
▁902	-11.3997
▁5/4	-11.4001
ăn	-11.4005
▁giả	-11.4006
▁452	-11.4008
▁karaok	-11.401
▁trừ	-11.4015
▁ferry	-11.4016
▁giuse	-11.4016
▁grill	-11.4016
▁hilton	-11.4016
▁pavilion	-11.4016
▁sắm	-11.4016
▁pétrus	-11.4016
▁kiệu	-11.4017
▁săn	-11.4019
▁rosa	-11.402
▁máng	-11.4021
▁bây	-11.4023
▁đưc	-11.4023
▁lách	-11.4024
▁tờ	-11.4024
▁súc	-11.4026
▁dieu	-11.4026
▁thêm	-11.4027
▁chieu	-11.4027
▁thê	-11.4032
mh	-11.4034
▁rong	-11.4034
▁lọc	-11.4035
▁bich	-11.4036
▁nghe	-11.4036
▁thuoc	-11.4038
а	-11.4043
▁662	-11.4044
▁ami	-11.4045
▁ken	-11.4047
▁sand	-11.4048
▁vai	-11.4048
▁bro	-11.4052
▁nan	-11.4063
▁590	-11.4065
▁care	-11.4071
▁822	-11.4092
4/4	-11.4101
▁957	-11.411
▁979	-11.411
.4	-11.4115
▁510	-11.4116
▁tom	-11.4121
ầ	-11.4124
▁24/2	-11.413
▁cake	-11.4146
▁8,	-11.4157
0/9	-11.4165
▁954	-11.4171
▁cày	-11.4173
▁935	-11.4177
ky	-11.4178
▁649	-11.4179
-17	-11.4181
▁1/1	-11.4182
▁667	-11.419
▁472	-11.4193
▁sá	-11.4199
ris	-11.4205
▁phươ	-11.4205
▁744	-11.421
▁473	-11.4214
▁gr	-11.4249
▁393	-11.4255
2/5	-11.4273
za	-11.4277
е	-11.4281
▁lab	-11.4307
ộ	-11.4329
▁1/48	-11.4334
10-1	-11.4348
đương	-11.4349
giáo	-11.435
shop	-11.4351
▁vis	-11.4355
▁712	-11.436
▁fo	-11.4363
cn	-11.4368
▁đứ	-11.4373
▁tụ	-11.4387
▁vâ	-11.4395
▁món	-11.4397
▁mũ	-11.4399
▁bắt	-11.4401
▁container	-11.4401
▁fansipan	-11.4401
▁găng	-11.4401
▁lắp	-11.4401
▁lặc	-11.4401
▁melody	-11.4401
▁orchid	-11.4401
▁phoenix	-11.4401
▁thįnh	-11.4401
▁workshop	-11.4401
▁ðồng	-11.4401
▁đừng	-11.4401
▁dầm	-11.4401
▁kafe	-11.4401
▁chống	-11.4402
▁ràng	-11.4402
▁mép	-11.4402
▁gỏi	-11.4402
▁súp	-11.4403
▁bcons	-11.4403
▁tý	-11.4405
▁bần	-11.4405
▁bỉm	-11.4406
▁thâm	-11.4406
tea	-11.4406
▁541/14	-11.4407
▁nương	-11.4407
▁sàng	-11.4415
▁wash	-11.4415
▁khuôn	-11.4418
▁591	-11.442
▁best	-11.4421
▁đl	-11.4428
▁plus	-11.4428
▁nét	-11.443
zi	-11.4441
▁gián	-11.4443
▁trứng	-11.4445
▁bts	-11.4458
▁giay	-11.447
▁hui	-11.4473
4/2	-11.4499
▁764	-11.4499
du	-11.4513
my	-11.4523
ul	-11.4527
8/2	-11.4551
è	-11.4554
▁012	-11.4563
▁koi	-11.4563
▁934	-11.4567
7-	-11.457
▁vit	-11.4575
▁696	-11.4576
▁mồ	-11.4577
▁phư	-11.4587
▁homes	-11.4593
▁665	-11.461
▁567	-11.4615
▁mm	-11.4633
▁373/1	-11.4651
▁718	-11.4666
▁ub	-11.4669
▁512/1	-11.4675
▁nhe	-11.4694
▁607	-11.4698
tc	-11.4699
ết	-11.471
▁592	-11.4719
84	-11.4748
▁nhâ	-11.4763
▁519	-11.477
▁luu	-11.4773
▁service	-11.4786
sao	-11.479
▁holiday	-11.4801
▁kebab	-11.4801
▁uẩn	-11.4801
▁waterfall	-11.4801
▁skype	-11.4801
▁everest	-11.4801
▁hateco	-11.4801
▁khuyết	-11.4801
▁pharmacity	-11.4801
▁grai	-11.4801
▁truờng	-11.4801
▁futa	-11.4801
▁indian	-11.4803
▁sỉ	-11.4803
▁trám	-11.4804
▁victory	-11.4805
▁cuisine	-11.4806
▁near	-11.4808
▁504	-11.481
▁យ	-11.4811
▁852	-11.4811
▁thiet	-11.4817
▁xuống	-11.4826
ton	-11.4837
▁851	-11.4838
115	-11.4842
▁ụ	-11.4846
ể	-11.4847
vt	-11.4861
▁kdt	-11.4864
▁710	-11.4866
▁quai	-11.4873
/105	-11.4878
▁love	-11.4879
▁mun	-11.4883
tu	-11.4918
▁ss	-11.4918
▁632	-11.4919
▁yu	-11.4926
▁xin	-11.4933
▁đm	-11.4934
▁3-4	-11.4937
▁hub	-11.4941
83	-11.4943
▁600/4	-11.4947
ren	-11.495
▁phươn	-11.4953
▁530	-11.4956
▁759	-11.4956
ồ	-11.4965
▁oct	-11.4982
out	-11.4984
▁par	-11.499
▁càng	-11.4992
▁904	-11.4998
▁763	-11.5012
▁749	-11.5044
▁576	-11.5045
▁xă	-11.5056
▁sb	-11.5069
▁843	-11.5091
▁881	-11.51
▁547	-11.5102
sta	-11.5104
▁ttc	-11.5108
▁888	-11.5109
ố	-11.5111
▁gang	-11.5135
ẹ	-11.5146
▁407	-11.5157
thành	-11.5166
nt	-11.5176
▁mên	-11.5183
▁bư	-11.5184
86	-11.5189
▁780	-11.5195
▁886	-11.5198
▁sồ	-11.5205
▁vồ	-11.5208
▁715	-11.5211
▁nguyễ	-11.5213
▁health	-11.5215
▁sì	-11.5216
▁304/35/12	-11.5218
▁adidas	-11.5218
▁crescent	-11.5218
▁fresh	-11.5218
▁industrial	-11.5218
▁lodge	-11.5218
▁nguồn	-11.5218
▁popeyes	-11.5218
▁rmit	-11.5218
▁thalexim	-11.5218
▁tấu	-11.5218
▁vinaconex	-11.5218
▁warehouse	-11.5218
▁krong	-11.5218
▁tới	-11.5218
▁boss	-11.5218
▁makeup	-11.5218
▁pathway	-11.5218
▁bão	-11.5218
▁trôi	-11.5219
▁comeco	-11.5219
▁rock	-11.5219
▁petrovietnam	-11.5219
▁trạng	-11.5219
▁chỗ	-11.5219
▁poly	-11.5219
▁mầu	-11.522
▁kdl	-11.522
▁hến	-11.5221
▁sieu	-11.5222
87	-11.5222
▁chông	-11.5222
▁ngày	-11.5226
▁six	-11.5227
▁canal	-11.5228
▁chòm	-11.5229
▁bean	-11.523
▁trùm	-11.5231
▁tuong	-11.5241
82	-11.5242
▁hermann	-11.5247
▁khao	-11.5252
▁box	-11.5253
▁692	-11.5256
▁phiêng	-11.5257
ep	-11.5259
▁leng	-11.5269
▁2-3	-11.5269
▁bời	-11.5288
▁471	-11.5292
▁căng	-11.5299
8/4	-11.5303
▁571	-11.5312
▁vl	-11.532
1-2	-11.5339
и	-11.5349
2/11	-11.5353
▁full	-11.5365
▁đuo	-11.5371
▁630	-11.5371
▁len	-11.5377
hh	-11.5382
▁vista	-11.5382
ản	-11.5388
▁pả	-11.5391
▁lp	-11.5426
▁kl	-11.543
▁584	-11.5434
▁tôi	-11.5438
-25	-11.5446
▁792	-11.5447
▁727	-11.5454
▁tong	-11.5458
oc	-11.5486
▁ac	-11.5497
▁854	-11.5508
▁818	-11.5509
▁hop	-11.5517
▁bri	-11.5535
▁oh	-11.5551
▁đin	-11.5572
▁ngông	-11.5588
hoàng	-11.5602
281	-11.5613
ồng	-11.5614
▁900	-11.5615
/109	-11.5616
▁914	-11.5616
▁29/2	-11.563
í	-11.563
3/4	-11.5641
gia	-11.5641
▁ticket	-11.5647
▁7,	-11.5648
▁bổ	-11.565
▁steak	-11.5652
▁tokyo	-11.5652
▁amazing	-11.5652
▁basketball	-11.5652
▁casino	-11.5652
▁drăng	-11.5652
▁dõng	-11.5652
▁exchange	-11.5652
▁gáo	-11.5652
▁ministop	-11.5652
▁sập	-11.5652
▁sắn	-11.5652
▁tặng	-11.5652
▁វត	-11.5652
▁internet	-11.5652
▁chì	-11.5652
▁barbershop	-11.5653
▁forest	-11.5653
▁akari	-11.5653
▁cheap	-11.5653
▁đuòng	-11.5653
▁chốt	-11.5654
▁vivo	-11.5654
▁port	-11.5654
▁úy	-11.5654
▁khỉ	-11.5654
▁thạc	-11.5655
▁mến	-11.5655
▁nhỉ	-11.5656
▁opal	-11.5656
▁thèn	-11.5656
▁boat	-11.5657
▁xuyen	-11.5658
▁diêm	-11.5658
▁xuy	-11.5661
▁dọc	-11.5662
▁mien	-11.5663
▁satra	-11.5663
▁ដ	-11.5665
▁bạng	-11.5666
▁tuyen	-11.5667
▁713	-11.5667
▁điê	-11.5672
▁đe	-11.5673
▁khay	-11.5682
▁ນ	-11.5693
▁thuo	-11.5695
▁ngok	-11.5695
▁pass	-11.5703
▁nhom	-11.5705
▁thé	-11.5708
▁582	-11.5709
▁82/15	-11.5709
▁hua	-11.5711
eu	-11.5717
▁scb	-11.5721
▁vec	-11.5724
▁mama	-11.5727
6/5	-11.5743
/92	-11.5753
▁hun	-11.5758
▁way	-11.5763
hu	-11.5768
▁2/7	-11.5774
▁xay	-11.5779
-039	-11.5781
tam	-11.5791
▁pk	-11.58
▁977	-11.5804
▁937	-11.5806
ii	-11.5814
▁856	-11.5817
thcs	-11.5822
▁869	-11.5825
▁pơ	-11.5828
▁nhau	-11.5829
▁bx	-11.5837
▁16/	-11.5844
▁ten	-11.5853
▁829	-11.5859
▁quo	-11.5861
▁mat	-11.5871
▁844	-11.5872
▁ghe	-11.5881
▁577	-11.5904
▁boo	-11.5913
gu	-11.5937
▁há	-11.5943
▁tết	-11.5947
ú	-11.5955
át	-11.5957
ó	-11.5963
▁lak	-11.5965
-21	-11.5974
▁1/2	-11.598
▁931	-11.5986
ỏ	-11.5997
▁df	-11.6013
▁962	-11.6039
ero	-11.6042
kỉnh	-11.6055
chợ	-11.6056
bay	-11.6061
ỗ	-11.6077
ara	-11.608
▁603	-11.6082
▁910	-11.6089
ber	-11.609
bến	-11.6099
▁souvenir	-11.6101
▁drink	-11.6104
▁super	-11.6107
▁345/7/27	-11.6107
▁archimedes	-11.6107
▁coconut	-11.6107
▁crown	-11.6107
▁dậy	-11.6107
▁emerald	-11.6107
▁gươm	-11.6107
▁indochina	-11.6107
▁lideco	-11.6107
▁music	-11.6107
▁nhóm	-11.6107
▁outdoor	-11.6107
▁symphony	-11.6107
▁tằng	-11.6107
▁with	-11.6107
▁đmhn	-11.6107
▁monaco	-11.6107
▁nấm	-11.6107
▁dăng	-11.6107
▁chiếc	-11.6107
▁moonlight	-11.6107
▁apple	-11.6107
▁sín	-11.6107
▁horizon	-11.6107
▁molex	-11.6107
▁chạy	-11.6107
▁đầy	-11.6108
▁vinuni	-11.6108
▁1/88	-11.6108
▁râu	-11.6108
▁đích	-11.6108
▁silk	-11.6108
▁vcb	-11.6108
▁–	-11.6108
▁gánh	-11.6109
▁mày	-11.6109
▁nice	-11.6109
▁dâ	-11.611
▁điêu	-11.6111
▁264/21	-11.6112
▁bổng	-11.6114
▁563	-11.6115
▁húc	-11.6115
▁ប	-11.6116
▁dăm	-11.6116
▁thẻ	-11.6118
▁ngài	-11.612
▁nhãn	-11.6121
tp	-11.6128
▁nôm	-11.6128
▁stay	-11.6131
▁ave	-11.6135
▁ất	-11.6139
▁mẹt	-11.6169
▁7-5	-11.6174
▁hơ	-11.6177
▁lán	-11.6193
uong	-11.6206
/96	-11.6211
▁en	-11.6211
▁vd	-11.6227
▁đoa	-11.6238
▁929	-11.6273
ian	-11.6275
0/7	-11.6278
len	-11.6279
▁bum	-11.628
▁nong	-11.6289
▁738	-11.6299
▁đd	-11.63
ải	-11.6308
▁80/1	-11.6308
▁41/6	-11.6351
▁tw	-11.6363
▁478	-11.6365
639	-11.638
yên	-11.6387
▁ye	-11.6394
▁bạ	-11.6406
▁752	-11.6407
.6	-11.641
6/13	-11.6423
▁rain	-11.6453
▁668	-11.6461
ụ	-11.6475
▁18/	-11.6489
0000	-11.6497
▁742	-11.6507
▁vov	-11.6514
▁phuon	-11.6515
▁hôn	-11.6524
mp	-11.6525
vietjet	-11.653
tháp	-11.6533
3/9	-11.6569
н	-11.6583
▁plei	-11.6583
▁biình	-11.6583
▁bắp	-11.6583
▁colonel	-11.6583
▁eatery	-11.6583
▁hello	-11.6583
▁icool	-11.6583
▁novotel	-11.6583
▁premium	-11.6583
▁păng	-11.6583
▁quẹo	-11.6583
▁swimming	-11.6583
▁texas	-11.6583
▁urban	-11.6583
▁ðang	-11.6583
ລ	-11.6583
▁tìm	-11.6583
▁tailor	-11.6583
▁waterfront	-11.6583
▁gtvt	-11.6583
▁jsc	-11.6583
1/9	-11.6583
▁laptop	-11.6583
▁huơng	-11.6583
▁rì	-11.6584
▁highland	-11.6584
▁skyline	-11.6584
▁bổn	-11.6584
▁nhờ	-11.6584
▁núp	-11.6584
▁newton	-11.6584
▁húng	-11.6584
▁tuý	-11.6584
▁roastery	-11.6584
▁fire	-11.6584
▁province	-11.6585
▁gù	-11.6585
▁phiệt	-11.6585
▁eden	-11.6585
▁imperial	-11.6587
▁pate	-11.6588
▁shophouse	-11.6588
▁745	-11.6589
▁computer	-11.659
▁643/9	-11.659
▁xê	-11.6592
▁rung	-11.6593
▁kèo	-11.6597
▁ngung	-11.6599
3-	-11.66
▁beo	-11.6602
▁tề	-11.6602
▁238/11	-11.6604
▁lku	-11.6605
▁chài	-11.6605
▁ú	-11.6612
▁10-11	-11.6616
▁lỗi	-11.6617
▁762	-11.6619
▁pao	-11.6622
▁gem	-11.6622
▁cham	-11.664
▁true	-11.6642
▁cđ	-11.6644
▁nine	-11.6651
▁quao	-11.6655
▁xả	-11.6671
▁610	-11.6686
▁556	-11.6688
▁tq	-11.6698
óng	-11.6713
▁ktt	-11.6721
▁ran	-11.6748
▁998	-11.675
ij	-11.6751
▁513	-11.6769
▁867	-11.6772
▁phun	-11.6781
▁hòang	-11.6782
▁846	-11.6796
▁578	-11.6812
tel	-11.6824
▁522	-11.6824
▁lh	-11.6845
▁btt	-11.6846
6-	-11.685
▁bel	-11.6861
▁737	-11.6868
qu	-11.6877
▁995	-11.6893
▁hana	-11.6893
▁833	-11.6897
▁lot	-11.6899
ys	-11.6902
▁đuc	-11.691
▁sò	-11.6915
ers	-11.6928
▁gar	-11.6946
97	-11.6956
lô	-11.6981
▁sv	-11.6994
7/9	-11.7
▁buu	-11.7008
ờ	-11.701
▁tức	-11.7024
life	-11.7028
(	-11.7031
đức	-11.7031
▁hiê	-11.7032
▁841	-11.7036
▁đó	-11.7038
▁901	-11.7046
út	-11.7046
▁kai	-11.705
▁hie	-11.7054
▁lự	-11.7063
▁đọ	-11.7066
▁buo	-11.7067
▁544	-11.7073
▁madam	-11.7076
▁chuồn	-11.7078
▁bện	-11.7081
▁vic	-11.7081
▁brt	-11.7082
▁apollo	-11.7083
▁domestic	-11.7083
▁floor	-11.7083
▁morning	-11.7083
▁prenn	-11.7083
▁sunset	-11.7083
▁sweet	-11.7083
▁volleyball	-11.7083
▁wild	-11.7083
▁được	-11.7083
▁ນໍາ	-11.7083
▁hleo	-11.7083
▁tđc	-11.7083
▁goldmark	-11.7083
▁luỹ	-11.7083
▁riverview	-11.7084
▁saint	-11.7084
▁book	-11.7084
▁jút	-11.7084
▁chũ	-11.7084
▁trăm	-11.7085
▁ngăn	-11.7085
▁rí	-11.7085
▁kiot	-11.7085
▁thoát	-11.7086
▁phuòng	-11.7086
▁mành	-11.7087
▁234/35	-11.7088
▁manh	-11.7089
▁châm	-11.7089
▁hòm	-11.709
▁421/4	-11.7091
▁hoè	-11.7092
▁loong	-11.7092
▁ck	-11.7093
▁fruit	-11.7093
▁925	-11.7098
▁hall	-11.7098
▁hối	-11.7098
▁vnua	-11.7098
▁đăm	-11.71
▁khuổi	-11.7103
▁khảo	-11.7105
▁doan	-11.7105
▁mango	-11.7112
▁phải	-11.7121
▁oto	-11.7126
▁more	-11.7128
▁bear	-11.7139
▁ngay	-11.714
▁za	-11.7141
▁nàn	-11.7149
▁tối	-11.7149
▁670	-11.7154
▁mão	-11.7169
▁ent	-11.717
ọc	-11.7182
/100	-11.7185
▁fine	-11.7187
▁fit	-11.7211
ps	-11.7215
▁khuy	-11.723
▁mari	-11.7245
8/9	-11.7249
▁531	-11.7249
▁bân	-11.7257
▁1225	-11.7259
▁thă	-11.7266
1-1	-11.7266
▁2015	-11.7293
▁598	-11.7295
▁kn	-11.7296
▁gp	-11.73
den	-11.73
▁rê	-11.7309
▁658	-11.731
750-	-11.7312
▁thui	-11.7321
▁596	-11.7337
/102	-11.7343
▁sán	-11.7346
▁842	-11.7353
▁728	-11.7375
cu	-11.74
▁ut	-11.7402
▁rest	-11.7403
▁khan	-11.7433
▁thỏ	-11.7439
▁690	-11.7446
▁yo	-11.7451
▁ny	-11.7453
▁xâ	-11.7458
▁951	-11.7472
▁753	-11.7478
òng	-11.7486
▁716	-11.7489
phone	-11.7496
▁phia	-11.7496
▁ehome	-11.7505
ển	-11.7509
▁736	-11.7512
ù	-11.7516
▁lie	-11.7518
lli	-11.752
▁671	-11.7527
▁2/4	-11.7528
▁boi	-11.7533
ứ	-11.7539
▁bow	-11.7546
230	-11.7553
ọ	-11.7553
bắc	-11.7557
vĩnh	-11.7557
▁mom	-11.7558
lt	-11.756
▁40/4	-11.757
▁cử	-11.7576
dv	-11.7592
▁bla	-11.7593
▁mụ	-11.7593
▁khán	-11.7602
▁alpha	-11.7609
▁ancient	-11.7609
▁cellphones	-11.7609
▁cherry	-11.7609
▁crystal	-11.7609
▁dabaco	-11.7609
▁global	-11.7609
▁gấu	-11.7609
▁legacy	-11.7609
▁lắng	-11.7609
▁mazda	-11.7609
▁mừng	-11.7609
▁ngắm	-11.7609
▁phặc	-11.7609
▁rainbow	-11.7609
▁tiềm	-11.7609
▁wedding	-11.7609
▁western	-11.7609
▁bụt	-11.7609
▁church	-11.7609
▁nệm	-11.7609
▁thuộc	-11.7609
▁spring	-11.7609
▁viglacera	-11.761
▁yuto	-11.761
▁đùng	-11.761
▁svđ	-11.761
▁oánh	-11.761
▁inter	-11.761
▁doji	-11.761
▁nói	-11.761
▁hvu	-11.7611
▁ngủ	-11.7611
▁four	-11.7611
▁cầy	-11.7612
▁quây	-11.7612
▁541/40	-11.7613
▁nhé	-11.7614
▁lieu	-11.7614
▁chát	-11.7614
▁muong	-11.7614
▁open	-11.7616
▁giàn	-11.7616
▁sầu	-11.7616
▁night	-11.7617
▁chành	-11.7618
▁kôn	-11.7618
▁nụ	-11.762
▁giời	-11.7621
▁អ	-11.7622
▁tán	-11.7623
▁238/29	-11.7624
▁cối	-11.7625
▁vuo	-11.7625
ường	-11.7625
▁50/2	-11.7626
▁с	-11.7626
▁nails	-11.7627
▁btl	-11.7628
▁chảy	-11.763
▁dại	-11.763
▁nung	-11.7634
▁ari	-11.7635
▁đạu	-11.7635
▁ơi	-11.7641
▁din	-11.7643
▁tát	-11.7651
▁sach	-11.7651
▁soc	-11.7659
▁644	-11.766
▁pte	-11.766
▁cải	-11.7661
▁lú	-11.7663
▁ict	-11.7665
▁kiet	-11.7666
▁970	-11.767
▁gong	-11.7676
▁ồ	-11.7679
▁gen	-11.768
▁ủ	-11.7684
▁2/1	-11.7688
743	-11.7693
▁chon	-11.7693
tek	-11.7694
▁gsm	-11.7703
ika	-11.7706
744	-11.7709
▁theo	-11.772
▁964	-11.776
▁hat	-11.7762
▁543	-11.7766
mon	-11.7785
▁lé	-11.7785
▁nj	-11.7785
hồng	-11.7793
▁1014	-11.7795
ngf	-11.7801
▁1-6	-11.7817
▁589	-11.7827
▁955	-11.7838
▁836	-11.7845
▁597	-11.7846
▁anna	-11.7849
▁774	-11.7854
▁tue	-11.7857
▁dá	-11.7861
▁648	-11.7866
▁ju	-11.7887
▁12/2	-11.7889
low	-11.789
ls	-11.789
▁529	-11.7892
▁1/52	-11.791
▁573	-11.7913
ele	-11.7917
our	-11.7927
ánh	-11.7938
▁773	-11.7949
/103	-11.7953
▁phen	-11.7955
▁918	-11.7959
261	-11.7964
▁mà	-11.7968
▁635	-11.7978
▁903	-11.7987
line	-11.7993
én	-11.8001
ỏi	-11.8017
ore	-11.8029
cj	-11.804
▁anz	-11.8044
▁chù	-11.8052
▁hotels	-11.806
▁roman	-11.8064
est	-11.8069
tti	-11.8071
▁dia	-11.809
one	-11.809
man	-11.8108
າ	-11.8109
viet	-11.8113
phố	-11.8113
if	-11.8115
võ	-11.8115
đồng	-11.8116
care	-11.8116
▁đố	-11.8124
▁xán	-11.8125
▁xù	-11.8127
thông	-11.8134
▁phò	-11.8138
▁càn	-11.8154
-32	-11.8156
▁bú	-11.8158
▁quâ	-11.8159
▁pôn	-11.8159
▁cầ	-11.816
▁flora	-11.8163
▁terra	-11.8165
▁badminton	-11.8165
▁cheese	-11.8165
▁corporation	-11.8165
▁dewey	-11.8165
▁dolphin	-11.8165
▁ecolodge	-11.8165
▁empire	-11.8165
▁gelexia	-11.8165
▁gourmet	-11.8165
▁hinode	-11.8165
▁hiếm	-11.8165
▁ielts	-11.8165
▁lẫm	-11.8165
▁lắm	-11.8165
▁lặn	-11.8165
▁montessori	-11.8165
▁trới	-11.8165
▁xép	-11.8165
▁đính	-11.8165
▁đục	-11.8165
▁ẩn	-11.8165
▁truyện	-11.8165
▁vietnamese	-11.8165
▁thiếc	-11.8165
▁đtdđ	-11.8165
▁huoai	-11.8165
▁ນາ	-11.8165
▁lilama	-11.8165
▁novaland	-11.8165
▁vicet	-11.8165
▁tiger	-11.8166
▁gọi	-11.8166
▁rồ	-11.8166
▁xổ	-11.8166
▁640/21/10	-11.8166
▁ramen	-11.8166
vietravel	-11.8166
▁drung	-11.8166
▁hapro	-11.8166
▁shoes	-11.8167
▁cội	-11.8167
▁solar	-11.8167
▁nghê	-11.8167
▁hiêp	-11.8169
▁gogi	-11.8169
▁quàng	-11.8169
▁pù	-11.8169
▁corp	-11.817
▁rút	-11.8171
▁logistics	-11.8174
▁noong	-11.8174
ăm	-11.8175
▁venus	-11.8176
▁brg	-11.8176
▁nhuan	-11.8178
▁fish	-11.818
▁nưa	-11.8181
▁banana	-11.8181
▁ngoai	-11.8181
▁ước	-11.8182
▁10000,	-11.8182
▁ram	-11.8184
▁234/17	-11.8184
▁thít	-11.8191
▁ngoan	-11.8192
▁xung	-11.8193
▁biti	-11.8207
7/	-11.8212
side	-11.8215
▁kang	-11.8215
▁phươc	-11.8219
▁dly	-11.8221
/98	-11.8225
▁580	-11.8226
▁dom	-11.8232
▁iv	-11.8232
ầu	-11.8235
▁770	-11.8244
8/3	-11.8244
▁61/21	-11.8247
▁870	-11.8251
▁840	-11.8282
▁towers	-11.8292
4/9	-11.8292
▁hk	-11.8299
ơn	-11.8317
▁nk	-11.8325
▁mp	-11.833
▁hó	-11.8335
net	-11.834
ນ	-11.834
▁hôi	-11.8341
▁679	-11.8345
linh	-11.8347
000,	-11.8359
▁939	-11.8362
▁gm	-11.8368
▁hò	-11.8373
▁pl	-11.8396
▁aka	-11.8403
▁788	-11.8407
▁miu	-11.8408
ion	-11.8413
ning	-11.8414
gh	-11.8427
к	-11.8428
nguyen	-11.8429
▁874	-11.843
ư	-11.8439
▁tv	-11.8443
▁đát	-11.8447
sun	-11.8451
▁thia	-11.8455
▁shin	-11.8457
▁ze	-11.8459
tv	-11.8463
▁xn	-11.8489
▁ge	-11.8492
ther	-11.8492
▁az	-11.8509
▁des	-11.8521
▁mil	-11.853
▁tè	-11.8536
bu	-11.8545
5/4	-11.8545
▁971	-11.856
▁41/1	-11.857
res	-11.8581
▁thom	-11.8595
won	-11.8609
8/6	-11.861
▁617	-11.8613
▁474	-11.8616
08-	-11.8616
▁je	-11.8633
▁chích	-11.8639
▁785	-11.8666
ear	-11.8679
học	-11.8687
.5	-11.8691
lam	-11.8702
đại	-11.8705
▁bb	-11.8709
▁tí	-11.8712
▁phá	-11.8713
văn	-11.8714
▁194,	-11.8715
▁ui	-11.8717
mỹ	-11.8718
day	-11.872
▁ah	-11.8726
ẽ	-11.8737
han	-11.8745
▁sâ	-11.8745
▁khoán	-11.875
▁un	-11.8751
▁53/81/3	-11.8752
о	-11.8753
▁orient	-11.8753
_	-11.8753
▁athena	-11.8753
▁bitexco	-11.8753
▁bướm	-11.8753
▁commercial	-11.8753
▁discovery	-11.8753
▁khâu	-11.8753
▁limited	-11.8753
▁lắc	-11.8753
▁mitsubishi	-11.8753
▁noodle	-11.8753
▁nùng	-11.8753
▁panorama	-11.8753
▁pưh	-11.8753
▁repair	-11.8753
▁rooftop	-11.8753
▁xéo	-11.8753
▁122-124	-11.8753
▁tecco	-11.8753
▁trading	-11.8753
▁total	-11.8753
▁panda	-11.8753
▁fuji	-11.8753
▁online	-11.8753
▁vicem	-11.8753
▁1041/62	-11.8753
▁dành	-11.8754
▁vasco	-11.8754
▁loại	-11.8754
▁giỏi	-11.8754
zo	-11.8754
▁muine	-11.8755
▁sinco	-11.8755
▁vừng	-11.8755
▁alphabiz	-11.8755
▁gả	-11.8755
▁real	-11.8755
▁súng	-11.8755
▁hẹn	-11.8755
▁rèn	-11.8755
▁xén	-11.8756
▁8-9	-11.8757
▁khạ	-11.8757
▁búk	-11.8757
▁bread	-11.8757
▁here	-11.8758
▁nhát	-11.8758
▁ផ	-11.8758
▁spot	-11.8758
▁rich	-11.8759
▁soup	-11.8759
▁bày	-11.8759
▁hoả	-11.8759
▁kiem	-11.8761
wood	-11.8763
▁thaco	-11.8763
▁tù	-11.8763
▁tăm	-11.8764
▁xăm	-11.8766
▁16-18	-11.8768
▁són	-11.8768
max	-11.8772
▁dds	-11.8773
light	-11.8774
▁holy	-11.8782
▁tủng	-11.8782
▁chứa	-11.8785
▁mark	-11.879
▁băc	-11.8792
▁pot	-11.8796
▁đóa	-11.88
-036	-11.8803
▁kỉnh	-11.8827
▁xoa	-11.8827
▁túi	-11.8834
gent	-11.8835
▁thán	-11.8838
▁air	-11.8855
▁lkv	-11.8857
.10	-11.8881
▁liêng	-11.8894
ino	-11.89
hai	-11.8901
▁tat	-11.8902
▁154/4	-11.8908
▁2019	-11.8917
ot	-11.8926
▁61/6	-11.8928
▁621	-11.893
▁gardens	-11.8932
▁viênn	-11.8932
▁eo	-11.8941
oj	-11.8959
km	-11.8989
1-3	-11.8997
▁thâ	-11.9003
-091	-11.9014
▁586	-11.902
▁604	-11.9022
▁sảng	-11.9033
▁hin	-11.906
▁646	-11.9065
ừ	-11.9074
▁mè	-11.9085
▁794	-11.9093
▁lg	-11.9104
▁2/2	-11.9105
▁15/2	-11.9118
hung	-11.9136
323	-11.9166
mai	-11.918
▁phạ	-11.9188
▁765/1	-11.9203
▁xan	-11.9206
phan	-11.9211
ight	-11.9219
▁or	-11.9221
dn	-11.9232
▁50,	-11.9233
▁tem	-11.9235
▁807	-11.9243
hang	-11.9261
▁châ	-11.9261
▁pas	-11.9268
▁44/8	-11.928
▁10/	-11.9287
▁nao	-11.9311
▁doc	-11.9316
▁mh	-11.9323
ự	-11.9331
khoa	-11.9333
ninh	-11.9336
ten	-11.934
top	-11.9346
▁581	-11.9351
▁ali	-11.9355
▁1/10	-11.9356
▁xạ	-11.9362
▁lù	-11.9372
▁gì	-11.9374
▁bỉ	-11.9376
▁rán	-11.9376
▁khoản	-11.9377
▁mttq	-11.9378
ы	-11.9378
▁alexandre	-11.9378
▁asahi	-11.9378
▁brilliant	-11.9378
▁bứu	-11.9378
▁century	-11.9378
▁chụp	-11.9378
▁dính	-11.9378
▁elite	-11.9378
▁glory	-11.9378
▁heaven	-11.9378
▁jardin	-11.9378
▁liệp	-11.9378
▁ngiệp	-11.9378
▁phép	-11.9378
▁project	-11.9378
▁rạt	-11.9378
▁somerset	-11.9378
▁taneya	-11.9378
▁vẫn	-11.9378
▁nâm	-11.9378
▁vimid	-11.9378
▁xiếc	-11.9378
▁howo	-11.9378
▁lantern	-11.9378
▁sign	-11.9378
▁klơng	-11.9378
▁vmu	-11.9378
▁ptdtbt	-11.9378
▁friendly	-11.9378
▁terrace	-11.9378
▁gift	-11.9378
▁ពង	-11.9378
▁khiem	-11.9379
▁địch	-11.9379
▁himlam	-11.9379
▁uyển	-11.9379
▁điệu	-11.9379
▁icon	-11.938
▁điếu	-11.938
▁ecohome	-11.938
▁vó	-11.938
▁189/12/8	-11.938
▁464/35	-11.9381
▁đlx	-11.9381
▁khoòng	-11.9381
▁377/49	-11.9382
▁xảo	-11.9382
4.0	-11.9382
▁soul	-11.9383
▁cuốc	-11.9384
▁kiêm	-11.9385
▁fruits	-11.9385
▁nóc	-11.9386
▁nở	-11.9387
▁ktv	-11.9387
▁mùi	-11.9387
▁htx	-11.9388
▁made	-11.9389
lon	-11.939
▁thieu	-11.939
▁trach	-11.9392
▁vông	-11.9393
▁vđ	-11.9393
▁thuân	-11.9395
▁gióng	-11.9397
▁19-8	-11.9401
▁style	-11.9404
3/	-11.9415
▁cityland	-11.9416
▁rach	-11.942
▁bống	-11.9422
▁mei	-11.9427
▁sts	-11.9429
▁691	-11.9432
▁dươn	-11.9439
trang	-11.9445
▁qual	-11.9448
▁hdi	-11.9456
▁rin	-11.9456
▁off	-11.9457
▁tiny	-11.9459
▁duyen	-11.946
ui	-11.9469
▁nuo	-11.9476
+8	-11.9477
▁that	-11.948
ả	-11.9482
ốc	-11.9482
▁51/18	-11.9506
tan	-11.9511
▁bam	-11.9522
ờng	-11.9524
ương	-11.9526
vina	-11.9531
đà	-11.9536
▁mina	-11.9538
▁sing	-11.9543
8,	-11.9548
▁37/1	-11.9551
ạo	-11.9567
▁lác	-11.9569
ốt	-11.9569
▁946	-11.9571
▁ev	-11.9572
▁caf	-11.9572
dh	-11.9581
▁sos	-11.961
▁754	-11.961
▁39.	-11.9623
ew	-11.9634
▁annam	-11.9637
▁884	-11.9639
▁758	-11.965
lin	-11.9651
▁cnc	-11.9655
▁gã	-11.9659
4-2	-11.9663
▁50/1	-11.9663
tic	-11.9667
vy	-11.9683
-28	-11.9686
▁694	-11.9688
▁nhai	-11.9699
▁01-	-11.97
uk	-11.9713
▁674	-11.9726
▁44/1	-11.9727
ahn	-11.9746
2-2	-11.9761
ôn	-11.9788
▁809	-11.9796
▁it	-11.98
▁129/5	-11.9801
▁23/4	-11.9802
▁705	-11.9803
▁all	-11.9818
▁nghie	-11.9825
▁660	-11.9836
phu	-11.9839
▁22/2	-11.9844
▁fin	-11.9856
▁bit	-11.9861
▁751	-11.9862
▁701	-11.9868
▁nhạ	-11.9891
▁cui	-11.9894
3/23	-11.9917
▁ló	-11.9923
▁861	-11.995
▁860	-11.9955
▁912	-11.9967
▁bie	-11.9968
ess	-11.9973
▁chô	-11.9989
thụy	-11.9993
thuận	-11.9993
▁thứa	-11.9996
▁rao	-12
▁bim	-12.0004
duong	-12.0008
ử	-12.0008
▁vá	-12.0012
▁uốn	-12.004
▁kiển	-12.0041
▁electronic	-12.0042
у	-12.0045
▁0500/01	-12.0045
▁bicycle	-12.0045
▁chẩn	-12.0045
▁cloud	-12.0045
▁compound	-12.0045
▁dental	-12.0045
▁hotpot	-12.0045
▁mandara	-12.0045
▁motorcycle	-12.0045
▁muội	-12.0045
▁mướp	-12.0045
▁niềm	-12.0045
▁north	-12.0045
▁peace	-12.0045
▁unnamed	-12.0045
▁dền	-12.0045
▁secondary	-12.0045
▁taste	-12.0045
▁meliá	-12.0045
748-	-12.0045
▁arena	-12.0045
ка	-12.0045
▁black	-12.0045
▁clothing	-12.0045
▁farmstay	-12.0045
▁fast	-12.0045
▁khơi	-12.0045
▁drai	-12.0046
▁luyến	-12.0046
▁mứt	-12.0046
▁giường	-12.0046
▁dào	-12.0046
▁marriott	-12.0046
▁xét	-12.0046
▁eye	-12.0047
▁like	-12.0047
▁trơn	-12.0047
▁vuông	-12.0047
▁tíu	-12.0048
▁ươm	-12.0048
▁miss	-12.0049
▁vồn	-12.0049
▁ủi	-12.0049
▁beta	-12.0049
▁ivy	-12.0049
▁lơng	-12.005
▁thêu	-12.005
▁hên	-12.0051
▁moto	-12.0052
▁diều	-12.0052
▁pết	-12.0052
▁path	-12.0053
▁gardenia	-12.0053
▁bọng	-12.0054
▁viva	-12.0054
▁tuyet	-12.0055
▁toong	-12.0057
▁tdm	-12.0061
▁dịu	-12.0062
ây	-12.0063
▁chồng	-12.0064
▁ít	-12.0065
▁3/11	-12.007
▁33/1	-12.0078
▁moan	-12.0081
▁mhb	-12.0083
▁còn	-12.0084
▁ớt	-12.0084
▁aac	-12.009
▁uyen	-12.009
▁144/20/	-12.0094
▁າ	-12.0108
▁8/11	-12.0109
▁đâu	-12.0111
ff	-12.0112
▁euro	-12.0113
▁hocn	-12.0119
▁ring	-12.0125
▁toi	-12.0128
▁lkn	-12.0132
▁28/39	-12.0133
▁str	-12.0134
▁720	-12.0136
▁hoai	-12.0138
▁ocb	-12.0139
▁nova	-12.0142
▁đp	-12.0147
▁2.4	-12.0149
nhj	-12.0154
▁lyn	-12.0161
art	-12.0168
▁max	-12.0169
▁ado	-12.0174
▁xv	-12.0176
▁oi	-12.0177
▁not	-12.0178
▁lọ	-12.0182
▁mãn	-12.0191
▁hưn	-12.0191
▁dac	-12.0191
ery	-12.0195
▁gach	-12.0209
▁ds	-12.0211
ance	-12.0227
02-2	-12.0239
ì	-12.0254
▁35/12	-12.0257
▁kc	-12.0259
▁1991	-12.0261
▁gol	-12.0263
▁et	-12.0282
▁nin	-12.0283
the	-12.0287
▁906	-12.0321
▁839	-12.0335
▁kan	-12.0343
▁pla	-12.0346
▁hay	-12.0347
▁bua	-12.0355
▁hoán	-12.0356
▁24/1	-12.0381
▁835	-12.0394
eur	-12.04
ăt	-12.0418
▁532/1	-12.042
èn	-12.042
▁nia	-12.0422
▁ngi	-12.0427
▁1176	-12.0429
▁19/8	-12.0435
tri	-12.0436
▁sk	-12.0442
àn	-12.045
▁+	-12.046
▁261/15/	-12.0467
uy	-12.0489
▁684	-12.049
+5	-12.0496
▁708	-12.0504
▁es	-12.0516
▁fc	-12.0531
▁is	-12.0539
tin	-12.0542
▁kơ	-12.0554
▁dĩa	-12.0557
▁thac	-12.0567
▁she	-12.0573
hr	-12.0583
/108	-12.0585
▁1041	-12.0588
▁305/1	-12.0596
.8	-12.0597
▁kat	-12.06
▁đườ	-12.0613
▁lơ	-12.0634
▁vạng	-12.0636
▁1/5	-12.0645
ji	-12.0645
ở	-12.0664
▁ngôn	-12.0672
▁791	-12.0673
bac	-12.0677
▁trươ	-12.0692
▁sú	-12.0694
▁chứ	-12.0701
ង	-12.0706
park	-12.0707
ម	-12.0707
terminal	-12.0707
hội	-12.0707
giồng	-12.0707
chị	-12.0709
phương	-12.0709
giang	-12.0712
oto	-12.0717
▁4/3	-12.0717
ũ	-12.072
ria	-12.0725
lim	-12.0729
ens	-12.0731
▁2/21	-12.0731
mar	-12.0738
▁lôc	-12.075
▁ll	-12.0752
▁korea	-12.0754
▁sense	-12.0754
▁souther	-12.0755
▁gô	-12.0756
河	-12.0757
▁swan	-12.0759
▁148/24/13	-12.0759
▁aquatopia	-12.0759
▁bhxh	-12.0759
▁bẩm	-12.0759
▁cập	-12.0759
▁dcapitale	-12.0759
▁drouhet	-12.0759
▁giêng	-12.0759
▁giăng	-12.0759
▁hidden	-12.0759
▁holings	-12.0759
▁indochine	-12.0759
▁innovation	-12.0759
▁khiếm	-12.0759
▁kingdom	-12.0759
▁lumière	-12.0759
▁muộn	-12.0759
▁napoli	-12.0759
▁nằm	-12.0759
▁parabol	-12.0759
▁pullman	-12.0759
▁secret	-12.0759
▁sunwah	-12.0759
▁tocotoco	-12.0759
▁trộn	-12.0759
▁turtle	-12.0759
▁vietsovpetro	-12.0759
▁vintage	-12.0759
▁ðường	-12.0759
▁đẵng	-12.0759
▁nhiễm	-12.0759
▁pharma	-12.0759
▁surf	-12.0759
▁nhược	-12.0759
▁museum	-12.0759
▁lrb	-12.0759
▁npp	-12.0759
▁zenpark	-12.0759
▁vrb	-12.0759
▁កដ	-12.0759
▁lủ	-12.0759
▁great	-12.0759
▁541/40/66	-12.076
▁quờn	-12.076
▁radar	-12.076
▁holdings	-12.076
▁nhiều	-12.076
▁limousine	-12.076
▁cosmetics	-12.076
▁giốc	-12.076
▁vinaphone	-12.076
▁xiếu	-12.0761
▁decor	-12.0761
▁cười	-12.0761
▁kcx	-12.0761
▁site	-12.0762
▁phiến	-12.0762
▁chạm	-12.0762
▁chez	-12.0762
▁nghìn	-12.0763
▁xiên	-12.0763
▁đủ	-12.0763
▁lily	-12.0763
▁sạt	-12.0763
▁healthy	-12.0763
▁dình	-12.0763
▁tỵ	-12.0764
▁dày	-12.0764
▁nghiện	-12.0764
▁bệh	-12.0764
▁korean	-12.0765
▁bora	-12.0765
▁mạn	-12.0765
▁software	-12.0765
▁ហ	-12.0765
▁vision	-12.0766
▁măt	-12.0766
▁mâu	-12.0766
▁260/49	-12.0766
▁gôn	-12.0767
▁cuon	-12.0767
▁kpă	-12.0768
▁services	-12.0768
▁tím	-12.0769
▁mạo	-12.0769
oóc	-12.0769
▁thiệt	-12.0769
▁dơng	-12.077
▁88/1	-12.077
▁nhọc	-12.0772
▁bahn	-12.0772
▁tầu	-12.0773
▁dù	-12.0773
▁kà	-12.0773
▁lock	-12.0775
▁dải	-12.0777
▁89/46	-12.0782
▁cntt	-12.0784
▁ມ	-12.0785
▁siu	-12.0787
▁bella	-12.0792
▁70000,	-12.0795
▁tào	-12.0795
▁dlt	-12.0805
ity	-12.0806
▁deo	-12.0807
lll	-12.0807
▁71/1	-12.0815
ox	-12.0824
▁dich	-12.083
▁én	-12.0833
▁chong	-12.0835
▁quà	-12.0836
▁ví	-12.084
▁vpp	-12.0843
▁vnd	-12.0843
▁sym	-12.0844
▁map	-12.0852
▁main	-12.0859
▁bill	-12.086
▁64/16	-12.086
homes	-12.0865
▁bami	-12.0867
▁hand	-12.0868
▁trọn	-12.0875
hs	-12.0875
▁ji	-12.0875
▁99/1	-12.088
▁810	-12.089
/2/1	-12.0896
▁bigc	-12.0898
▁chom	-12.0904
105	-12.0905
▁geo	-12.0916
▁57/6	-12.0916
▁158/16	-12.093
yo	-12.0935
▁camp	-12.094
com	-12.094
▁642	-12.0941
ze	-12.0961
rm	-12.098
▁45/6	-12.0987
▁vieta	-12.0988
▁72/1	-12.0989
key	-12.1023
▁997	-12.1023
▁vỉ	-12.1025
▁722	-12.1034
tec	-12.1044
▁bả	-12.1045
▁105/2	-12.1058
ju	-12.1059
▁pol	-12.1071
▁866	-12.1072
vn	-12.1072
▁sq	-12.1073
ôi	-12.1074
▁68/1	-12.1078
.7	-12.1081
iếu	-12.109
102	-12.109
bar	-12.1096
▁19/10	-12.1097
ure	-12.1098
dong	-12.1102
hí	-12.1105
▁001	-12.1123
▁15/3	-12.1169
▁oa	-12.1186
▁fan	-12.1186
886	-12.1195
▁672	-12.1197
▁hac	-12.1211
ét	-12.1216
▁uo	-12.122
ist	-12.1236
▁sal	-12.1238
▁bệ	-12.1239
▁28/2	-12.1284
▁gl	-12.1295
ất	-12.1296
▁ok	-12.1314
▁9/2	-12.1317
06-	-12.1321
rin	-12.133
▁meo	-12.1333
▁916	-12.1335
ngo	-12.1347
▁vài	-12.1349
/9/2	-12.1359
▁res	-12.1362
▁680	-12.1373
▁53/1	-12.1374
▁dé	-12.1402
▁974	-12.1409
▁sd	-12.1454
▁1031	-12.1456
▁pre	-12.1462
260	-12.1464
huy	-12.1468
ກ	-12.1473
green	-12.1476
world	-12.1476
thảo	-12.1476
ubnd	-12.1476
trường	-12.1477
link	-12.1477
▁mí	-12.1486
ary	-12.1495
ĩ	-12.1497
▁58/1	-12.15
▁nest	-12.1504
plus	-12.1509
▁chat	-12.1509
ỡ	-12.151
▁234/1	-12.1519
▁ngó	-12.1528
▁prince	-12.1528
▁authentic	-12.1528
▁bridal	-12.1528
▁buffalo	-12.1528
▁business	-12.1528
▁canteen	-12.1528
▁charles	-12.1528
▁chắn	-12.1528
▁construction	-12.1528
▁dậu	-12.1528
▁electric	-12.1528
▁frédéric	-12.1528
▁gecko	-12.1528
▁gmeiner	-12.1528
▁guangbo	-12.1528
▁heritage	-12.1528
▁izakaya	-12.1528
▁jungle	-12.1528
▁louisiana	-12.1528
▁mechanic	-12.1528
▁mimosa	-12.1528
▁nẫm	-12.1528
▁playground	-12.1528
▁quarter	-12.1528
▁rắn	-12.1528
▁samsora	-12.1528
▁sheraton	-12.1528
▁soleil	-12.1528
▁vimeco	-12.1528
▁violet	-12.1528
▁đakrông	-12.1528
▁平江	-12.1528
口岸	-12.1528
▁canifa	-12.1528
▁gừa	-12.1528
▁orange	-12.1528
▁udic	-12.1528
▁hứa	-12.1528
▁preschool	-12.1528
▁ptdtnt	-12.1528
▁funny	-12.1528
▁department	-12.1529
▁bmw	-12.1529
▁bunker	-12.1529
▁hawail	-12.1529
▁1041/80	-12.1529
▁small	-12.1529
▁plant	-12.1529
▁422/14/10	-12.1529
▁rent	-12.1529
▁hawaii	-12.1529
▁sasin	-12.1529
▁chưởng	-12.153
▁mưu	-12.153
▁viettin	-12.153
▁pvcom	-12.153
▁huýt	-12.153
▁chở	-12.1531
▁súy	-12.1531
▁sủi	-12.1531
▁pasta	-12.1531
▁hôtel	-12.1532
▁suoi	-12.1532
▁chén	-12.1532
▁cuông	-12.1532
▁háo	-12.1533
▁seasons	-12.1533
▁sumo	-12.1533
▁cdc	-12.1534
▁edu	-12.1534
▁nhám	-12.1534
▁bức	-12.1534
▁mài	-12.1535
▁pờ	-12.1535
▁rẻ	-12.1535
▁buyt	-12.1535
▁belle	-12.1536
▁luna	-12.1537
▁tuoi	-12.1537
▁drinks	-12.1537
▁botanica	-12.1538
▁dần	-12.1538
▁lion	-12.1538
▁ច	-12.1539
▁chien	-12.154
▁ncb	-12.154
▁dỡ	-12.154
▁unis	-12.1541
▁bungalows	-12.1543
▁19-21	-12.1543
▁đăn	-12.1544
▁nỏ	-12.1545
▁múa	-12.1546
▁yp	-12.1547
▁1135/	-12.1548
▁គ	-12.1548
▁hống	-12.1548
▁khóa	-12.1549
▁238/25	-12.155
▁suong	-12.1551
2.0	-12.1552
▁ជ	-12.1552
▁ship	-12.1555
▁bót	-12.1556
▁15/1	-12.1557
▁tị	-12.1558
▁buy	-12.1558
▁kông	-12.1558
▁dẻ	-12.1562
▁chảo	-12.1564
▁kra	-12.1565
704	-12.1565
▁52/42	-12.1565
bà	-12.1573
▁86/4	-12.1581
▁cùng	-12.1584
▁pit	-12.1588
uw	-12.1588
▁61/33	-12.159
▁ket	-12.1591
▁kua	-12.1592
▁xíu	-12.1592
▁9-11	-12.1592
▁chưng	-12.1595
▁knô	-12.1601
▁103/23	-12.1602
▁19/4	-12.1605
▁kie	-12.161
▁49/1	-12.1617
▁muốn	-12.162
▁ling	-12.1622
▁hâ	-12.1622
▁1-3	-12.1623
▁cup	-12.1631
▁hộp	-12.1634
▁xách	-12.1642
▁mer	-12.1642
▁ná	-12.1644
▁pvi	-12.1644
▁tj	-12.1649
▁buông	-12.1657
zone	-12.1657
▁125/4	-12.1671
▁58/8	-12.1672
▁trans	-12.1673
▁220/9	-12.1675
▁luo	-12.168
▁đườn	-12.1683
wf	-12.1687
▁bch	-12.1692
▁50/17	-12.1695
▁131/1	-12.1704
▁681	-12.1706
▁rs	-12.1712
▁rhi	-12.1742
▁hoian	-12.175
▁40/2	-12.1756
▁kom	-12.1757
iêu	-12.1757
▁tnh	-12.1768
▁kin	-12.1773
▁giâ	-12.1777
▁moo	-12.1782
king	-12.1786
ting	-12.1793
▁938	-12.1804
▁thit	-12.1812
▁viênj	-12.1814
que	-12.1831
▁7/1	-12.1835
▁coi	-12.1836
ống	-12.1839
▁xc	-12.1849
uô	-12.1861
-034	-12.1862
▁739	-12.1867
▁58/3	-12.1873
▁659	-12.1877
▁799	-12.1887
▁vs	-12.189
▁fee	-12.1897
▁kệ	-12.1898
▁74/1	-12.1901
▁luy	-12.1902
▁1008	-12.1911
▁828	-12.1912
àng	-12.1914
▁32/1	-12.1922
▁17/1	-12.1937
▁17/2	-12.194
▁706	-12.1944
▁734	-12.1953
drop	-12.1962
▁82/7	-12.1966
▁924	-12.1974
▁màn	-12.1974
▁51/2	-12.1982
ive	-12.2002
▁608	-12.2008
ron	-12.2022
▁jin	-12.2024
▁toc	-12.2034
▁cali	-12.2047
▁6/10	-12.2064
▁626	-12.2066
5/35	-12.2098
▁24/11	-12.2099
▁158/1	-12.2104
▁38/4	-12.212
▁cof	-12.212
tex	-12.213
▁dú	-12.2133
▁thue	-12.214
pr	-12.2144
▁east	-12.2146
ies	-12.2149
rr	-12.2152
▁hộc	-12.2163
2-3	-12.2163
▁806	-12.217
ọng	-12.2173
▁38/6	-12.2186
▁chưa	-12.2187
ster	-12.2203
▁cari	-12.2205
▁499/6	-12.2206
▁35/7	-12.2209
▁eva	-12.2221
▁per	-12.223
vo	-12.2232
▁kiê	-12.2239
▁991	-12.2247
▁phin	-12.2253
▁md	-12.2258
tx	-12.2265
74-	-12.2278
▁roll	-12.2279
ỷ	-12.2282
ấn	-12.2287
view	-12.2303
▁class	-12.2306
htcđ	-12.2307
xuống	-12.2309
5-5	-12.2309
រ	-12.231
thạch	-12.231
xóm	-12.231
bảo	-12.231
store	-12.231
hy	-12.2311
▁giant	-12.2314
▁ls	-12.2316
số	-12.232
▁seo	-12.2321
▁niê	-12.2326
mac	-12.233
▁ala	-12.2334
ướng	-12.234
thao	-12.2342
ượng	-12.2342
▁lè	-12.2354
▁airline	-12.2357
▁season	-12.236
▁vừ	-12.2361
м	-12.2362
г	-12.2362
ເ	-12.2362
寨	-12.2362
й	-12.2362
▁aurora	-12.2362
▁avatar	-12.2362
▁chẩm	-12.2362
▁concung	-12.2362
▁cữu	-12.2362
▁elephant	-12.2362
▁foxconn	-12.2362
▁gắt	-12.2362
▁information	-12.2362
▁junior	-12.2362
▁kindergarten	-12.2362
▁lavida	-12.2362
▁liberty	-12.2362
▁mansion	-12.2362
▁moonmilk	-12.2362
▁mulberry	-12.2362
▁osaka	-12.2362
▁pandora	-12.2362
▁police	-12.2362
▁renault	-12.2362
▁rhodes	-12.2362
▁scenic	-12.2362
▁signature	-12.2362
▁ðặng	-12.2362
▁đoán	-12.2362
▁沿边公路旧线	-12.2362
▁高鐵峴港站	-12.2362
中	-12.2362
屯	-12.2362
弄	-12.2362
界点	-12.2362
▁owen	-12.2362
▁rục	-12.2362
▁sợi	-12.2362
▁bấm	-12.2362
▁nền	-12.2362
▁shade	-12.2362
▁hmong	-12.2362
▁wtg	-12.2362
▁stream	-12.2362
▁ốp	-12.2362
▁sentia	-12.2362
▁onsen	-12.2362
▁trưòng	-12.2362
▁babylon	-12.2362
▁phaolô	-12.2362
▁glun	-12.2362
▁cardinal	-12.2362
▁tropical	-12.2362
▁monkey	-12.2362
▁oriental	-12.2362
▁truường	-12.2363
▁nghiêp	-12.2363
▁bmt	-12.2363
▁catba	-12.2363
▁thsc	-12.2363
▁seaside	-12.2363
▁rời	-12.2363
▁union	-12.2363
▁snow	-12.2364
▁261/15/18/	-12.2364
▁inner	-12.2364
▁cmc	-12.2364
▁nhõ	-12.2364
▁lủng	-12.2365
▁miniso	-12.2365
▁pick	-12.2365
▁links	-12.2365
▁kite	-12.2365
▁conic	-12.2366
▁rọc	-12.2366
▁ngoa	-12.2366
▁tụng	-12.2367
▁duơng	-12.2367
▁ialy	-12.2369
▁cộ	-12.2369
▁lèng	-12.2369
▁mút	-12.2369
▁pơng	-12.2369
▁ສ	-12.237
▁tèo	-12.237
▁152/64	-12.237
▁334/64/	-12.2371
▁kén	-12.2371
ila	-12.2372
▁jut	-12.2373
▁bệng	-12.2373
▁xúc	-12.2374
▁sây	-12.2374
▁sủ	-12.2374
▁sói	-12.2374
▁dộc	-12.2375
▁taco	-12.2375
▁lkud	-12.2379
▁325/11	-12.2379
▁sành	-12.2381
▁tnp	-12.2382
▁bibo	-12.2383
▁hé	-12.2383
▁audio	-12.2385
▁queens	-12.2387
▁rơm	-12.2389
▁icd	-12.2391
▁câm	-12.2392
qx	-12.2393
▁táng	-12.2397
▁thay	-12.2398
▁xì	-12.24
▁pra	-12.2402
▁120/29	-12.2404
▁ưng	-12.2404
▁950	-12.2405
▁coast	-12.2405
▁cốm	-12.2406
▁skin	-12.2408
▁vap	-12.2411
4-1	-12.2415
▁cảo	-12.242
▁mác	-12.2421
ìn	-12.2422
▁nào	-12.2426
3-1	-12.2428
▁trao	-12.2429
▁36/45	-12.2434
▁1/38	-12.2436
▁ex	-12.2445
▁tẻh	-12.2451
fit	-12.2453
▁thửa	-12.2461
▁lks	-12.2464
▁960	-12.2467
▁zô	-12.2468
▁vện	-12.247
▁cr	-12.247
▁990	-12.2472
▁vk	-12.2474
end	-12.2476
▁pj	-12.249
▁rio	-12.2491
▁trành	-12.2495
ring	-12.2499
▁gk	-12.25
▁ngai	-12.2502
▁qp	-12.2503
▁thap	-12.2515
5/27	-12.2517
▁2009	-12.252
▁40/21	-12.2521
▁lhu	-12.2521
▁tml	-12.2523
▁sum	-12.2524
▁tsa	-12.2525
▁10/1	-12.2531
òn	-12.2546
▁trườn	-12.2553
min	-12.2557
lia	-12.256
.12	-12.257
▁815	-12.2573
▁19/2	-12.2576
▁xát	-12.2579
▁pac	-12.2591
▁12/4	-12.2596
▁55/6	-12.2601
▁1228	-12.2607
ets	-12.2612
▁ơ	-12.2617
▁172/1	-12.2623
3/27	-12.2627
▁hca	-12.2628
ement	-12.2632
men	-12.2638
▁1241	-12.2641
▁tand	-12.2666
▁849	-12.2706
▁train	-12.2709
▁wat	-12.2711
▁far	-12.272
▁dj	-12.2722
▁phâ	-12.2728
▁sas	-12.2728
с	-12.273
▁69/2	-12.273
▁troi	-12.2731
dor	-12.2737
gò	-12.275
▁350/1	-12.2751
▁798	-12.2762
ez	-12.2771
▁140/1	-12.2774
▁797	-12.2778
ich	-12.2781
▁mrs	-12.2789
▁43/1	-12.2792
may	-12.2794
uyen	-12.2798
▁rd	-12.2816
170	-12.2829
▁38/3	-12.2835
▁663	-12.2839
ieu	-12.284
eri	-12.2846
▁die	-12.2863
tion	-12.2869
star	-12.2874
р	-12.2881
▁30/7	-12.2896
▁dona	-12.2902
▁reo	-12.2913
▁dy	-12.2929
▁gâ	-12.2932
▁zo	-12.2966
ort	-12.2967
sco	-12.2967
▁736/1	-12.2969
▁268/2	-12.2974
▁phou	-12.2984
▁muôn	-12.2984
453	-12.2991
▁hum	-12.2995
▁phon	-12.2996
▁707	-12.3001
▁993	-12.3017
▁jun	-12.3028
121/35	-12.3029
▁808	-12.3036
uni	-12.3037
▁69/1	-12.3051
êm	-12.3095
car	-12.311
▁im	-12.312
ần	-12.3128
iki	-12.3129
▁115/1	-12.3131
▁triê	-12.3132
ổ	-12.3142
ard	-12.3147
▁ả	-12.3156
ổi	-12.3181
▁quanh	-12.3186
190	-12.3196
▁acc	-12.3207
ດ	-12.3214
в	-12.3216
studio	-12.3219
thới	-12.3219
tòa	-12.3219
lý	-12.322
▁ngac	-12.3226
▁trá	-12.3229
▁lạ	-12.323
▁724	-12.3234
▁thoan	-12.3234
ớt	-12.3235
4-3	-12.3248
▁282/4	-12.3248
▁diê	-12.3249
▁nut	-12.3254
▁ngâ	-12.3256
kids	-12.3257
▁roaster	-12.3263
▁billiard	-12.3266
▁window	-12.3266
▁opera	-12.3269
▁nhùn	-12.3269
海	-12.3271
路	-12.3271
ā	-12.3271
▁japan	-12.3271
▁yody	-12.3271
ແ	-12.3271
▁106°1	-12.3271
▁aroma	-12.3271
▁beautiful	-12.3271
▁biền	-12.3271
▁boudonnet	-12.3271
▁buslines	-12.3271
▁california	-12.3271
▁chầm	-12.3271
▁daklak	-12.3271
▁departure	-12.3271
▁edison	-12.3271
▁financial	-12.3271
▁flamingo	-12.3271
▁floating	-12.3271
▁fried	-12.3271
▁fusion	-12.3271
▁gưh	-12.3271
▁herbal	-12.3271
▁hikari	-12.3271
▁houay	-12.3271
▁intracom	-12.3271
▁japanese	-12.3271
▁lavender	-12.3271
▁lavita	-12.3271
▁licogi	-12.3271
▁mandala	-12.3271
▁nhiễu	-12.3271
▁nhíp	-12.3271
▁oxalis	-12.3271
▁petroleum	-12.3271
▁primary	-12.3271
▁public	-12.3271
▁qúy	-12.3271
▁qđnd	-12.3271
▁ruột	-12.3271
▁rèm	-12.3271
▁rằng	-12.3271
▁seven	-12.3271
▁superior	-12.3271
▁telecom	-12.3271
▁thấu	-12.3271
▁vợt	-12.3271
▁waterbus	-12.3271
▁xồm	-12.3271
▁đảm	-12.3271
▁đắt	-12.3271
▁đời	-12.3271
线	-12.3271
▁fortun	-12.3271
▁nghiễm	-12.3271
▁paper	-12.3271
▁séo	-12.3271
▁ទន	-12.3271
▁masterise	-12.3271
▁easy	-12.3271
▁141/116	-12.3271
▁503/54/	-12.3271
▁brewery	-12.3271
▁cyber	-12.3271
▁peak	-12.3271
▁ttyt	-12.3271
▁stupa	-12.3271
▁35-37	-12.3271
▁ướt	-12.3271
▁camera	-12.3271
▁plông	-12.3271
▁matcha	-12.3271
▁dress	-12.3271
▁20-22	-12.3271
▁daewoo	-12.3271
▁ghẹ	-12.3271
▁jhao	-12.3271
▁location	-12.3271
▁adora	-12.3271
▁kfc	-12.3271
▁lakeside	-12.3272
▁lấy	-12.3272
▁riverpark	-12.3272
▁7/134	-12.3272
▁nhảy	-12.3272
▁ghế	-12.3272
▁wall	-12.3272
▁lều	-12.3272
▁visip	-12.3273
▁phèn	-12.3273
▁đúng	-12.3273
▁canary	-12.3273
▁trĩ	-12.3273
▁163/34/8	-12.3273
▁truông	-12.3273
▁baoviet	-12.3273
▁ngải	-12.3273
▁lèn	-12.3273
▁sủng	-12.3274
▁lùn	-12.3274
▁vỏ	-12.3274
▁nhông	-12.3274
▁cuba	-12.3275
▁trubg	-12.3275
▁triện	-12.3275
▁loop	-12.3275
▁mas	-12.3276
▁lisa	-12.3277
▁700000	-12.3277
▁193/64	-12.3278
▁electronics	-12.3278
▁southern	-12.3278
▁slab	-12.3278
▁vape	-12.3278
▁vây	-12.3279
▁pú	-12.3279
▁ngâm	-12.3279
▁khác	-12.328
▁300/34	-12.3281
▁chòi	-12.3281
▁thóc	-12.3281
▁231/40/	-12.3282
▁săm	-12.3283
▁brew	-12.3284
▁482/10	-12.3284
▁medic	-12.3284
▁dối	-12.3284
▁tony	-12.3286
▁290/40/	-12.3286
▁ngachs	-12.3286
▁wave	-12.3289
▁364/15	-12.3289
▁dlp	-12.3289
▁ngọk	-12.329
▁jw	-12.329
▁vác	-12.3293
▁era	-12.3295
▁dồ	-12.3296
▁ktm	-12.3296
▁ານ	-12.3296
▁những	-12.3296
emi	-12.3297
▁kung	-12.3299
▁614/7	-12.3299
▁sửu	-12.3299
▁lánh	-12.33
▁nguyet	-12.3301
▁ງ	-12.3305
▁tara	-12.3305
▁rex	-12.3306
▁27/1	-12.3307
▁củng	-12.3307
▁hv	-12.3311
▁băn	-12.3312
▁sonw	-12.3314
▁175/28/	-12.3316
▁mg	-12.3317
▁58/35	-12.332
▁led	-12.3322
▁ດ	-12.3326
▁44/58/	-12.3327
▁htcđ	-12.3331
▁thuat	-12.3334
▁xùa	-12.3337
▁giãn	-12.3339
▁xala	-12.334
▁32/2	-12.3343
nin	-12.3358
▁pq	-12.3361
.26	-12.3361
▁28/42	-12.3364
▁lưng	-12.3377
▁76/2	-12.338
fu	-12.3381
▁97/1	-12.3384
▁fp	-12.3388
▁144/4	-12.3391
▁chèm	-12.3392
13-	-12.3394
mat	-12.3396
din	-12.3401
▁86/16	-12.3401
▁xp	-12.3403
▁é	-12.3409
▁pen	-12.3418
▁ải	-12.3433
▁hốc	-12.3435
▁bowl	-12.3436
▁sei	-12.344
747	-12.3448
ose	-12.3465
▁viee	-12.3467
▁mit	-12.3469
▁cành	-12.347
▁1050	-12.3478
▁ptt	-12.3478
ute	-12.3478
ful	-12.3488
▁pal	-12.3491
xx	-12.3491
▁558,	-12.3499
▁vín	-12.3504
▁gt	-12.3506
▁1034	-12.3512
▁23/18	-12.3514
▁ron	-12.3526
▁1305	-12.3541
▁857	-12.3543
/04	-12.3551
▁gran	-12.3562
325	-12.3563
▁12/1	-12.3569
▁32/18	-12.3573
ơi	-12.3581
▁23/10	-12.3584
▁947	-12.3585
▁3-2	-12.3588
▁90/1	-12.3598
300	-12.3604
▁buô	-12.3609
thi	-12.361
▁tee	-12.3614
▁mak	-12.3617
▁xia	-12.3626
▁bốt	-12.3643
▁13/1	-12.3661
▁143/2	-12.3664
▁đon	-12.3666
▁hia	-12.3688
▁sale	-12.369
▁30/9	-12.369
205	-12.3695
▁mis	-12.3698
▁mảt	-12.3714
▁7/3	-12.3726
▁49/9	-12.3749
▁729	-12.3754
▁834	-12.3761
neu	-12.3762
▁choi	-12.3764
▁hù	-12.377
ườn	-12.381
ối	-12.3816
2-1	-12.3829
▁um	-12.3838
▁9/3	-12.3844
05-2	-12.3854
tang	-12.3859
▁14/16	-12.3875
yến	-12.3893
ave	-12.3894
trip	-12.39
▁wc	-12.3905
ish	-12.3932
▁bell	-12.3934
▁60/4	-12.3942
rok	-12.3956
▁28/1	-12.3961
cầu	-12.3963
▁dem	-12.3966
▁mk	-12.3975
uối	-12.3984
▁539/19/	-12.3985
▁7/6	-12.3988
▁goc	-12.399
▁bâ	-12.399
▁nhim	-12.3994
▁15.	-12.3998
▁174/1	-12.4006
▁mé	-12.4012
▁88/	-12.4025
ер	-12.4056
▁45/2	-12.4071
▁1/49	-12.4079
shin	-12.4083
▁sav	-12.41
▁cheo	-12.41
illa	-12.4114
▁14/8	-12.4122
▁gin	-12.4131
▁47/2	-12.4141
rs	-12.4149
▁832	-12.4152
▁104/1	-12.4156
▁phì	-12.4161
ích	-12.4167
tinh	-12.4168
▁600/4/3	-12.4169
áng	-12.4173
-1200000	-12.4174
ý	-12.4186
iê	-12.4188
▁tul	-12.4204
hoà	-12.4208
ວ	-12.4215
▁os	-12.4215
skin	-12.4217
quan	-12.4217
bike	-12.4219
thái	-12.422
ngãi	-12.4221
như	-12.4221
mark	-12.4221
sports	-12.4223
quang	-12.4225
gate	-12.4225
stay	-12.4226
kcn	-12.4229
▁đị	-12.4238
▁23/1	-12.4244
cau	-12.4247
▁nghiê	-12.4254
▁vươ	-12.4256
over	-12.4259
liên	-12.4262
▁estate	-12.4266
▁luôn	-12.4267
work	-12.4269
▁rú	-12.4269
▁170-172	-12.4271
▁agency	-12.4271
▁bujeon	-12.4271
▁chắm	-12.4271
▁cienco	-12.4271
▁collection	-12.4271
▁community	-12.4271
▁digital	-12.4271
▁dimsum	-12.4271
▁elipsport	-12.4271
▁first	-12.4271
▁french	-12.4271
▁furniture	-12.4271
▁general	-12.4271
▁ghềnh	-12.4271
▁giúp	-12.4271
▁grimaud	-12.4271
▁huyndai	-12.4271
▁hừng	-12.4271
▁intimex	-12.4271
▁jamona	-12.4271
▁jewelry	-12.4271
▁kangping	-12.4271
▁khắp	-12.4271
▁kitô	-12.4271
▁manwah	-12.4271
▁maxvalu	-12.4271
▁midtown	-12.4271
▁millennium	-12.4271
▁mấu	-12.4271
▁mọi	-12.4271
▁nguỹen	-12.4271
▁nhuyễn	-12.4271
▁pepper	-12.4271
▁phuquoc	-12.4271
▁prông	-12.4271
▁rốp	-12.4271
▁sneaker	-12.4271
▁suzuki	-12.4271
▁tools	-12.4271
▁toái	-12.4271
▁turbine	-12.4271
▁tận	-12.4271
▁tắt	-12.4271
▁ubmttq	-12.4271
▁vằn	-12.4271
▁wellness	-12.4271
▁westlake	-12.4271
▁yellow	-12.4271
▁ðạm	-12.4271
▁đợi	-12.4271
▁ắp	-12.4271
坪	-12.4271
▁khmer	-12.4271
▁daisy	-12.4271
▁rừa	-12.4271
▁yôk	-12.4271
▁adtek	-12.4271
▁wpp	-12.4271
-027436	-12.4271
▁classroom	-12.4271
▁1014/88	-12.4271
▁tunhr	-12.4271
▁39-41	-12.4271
▁superdong	-12.4271
▁phja	-12.4271
▁huce	-12.4271
▁kafa	-12.4271
▁24-26	-12.4271
▁master	-12.4271
▁cooking	-12.4271
▁brvt	-12.4271
▁hospitality	-12.4271
▁medical	-12.4271
▁leaf	-12.4271
▁under	-12.4271
▁17-19	-12.4271
▁blu	-12.4272
▁vuọt	-12.4272
▁jack	-12.4272
▁transport	-12.4272
▁lobby	-12.4272
▁xúan	-12.4272
▁watch	-12.4272
▁ngỉ	-12.4272
▁ptnt	-12.4272
▁picity	-12.4272
▁royaltea	-12.4272
▁điểu	-12.4272
▁mấy	-12.4273
▁ptcs	-12.4273
▁logi	-12.4273
▁cappe	-12.4273
▁chồi	-12.4273
▁dairy	-12.4273
wp	-12.4274
▁amber	-12.4274
▁hiao	-12.4274
▁331/70	-12.4274
▁mitek	-12.4274
▁trưa	-12.4274
▁hẻ	-12.4274
▁uel	-12.4274
▁lady	-12.4275
▁lemon	-12.4275
▁răm	-12.4275
▁vicom	-12.4275
▁487/47	-12.4275
▁thâu	-12.4275
▁trễ	-12.4276
▁536/43/	-12.4276
▁hỏi	-12.4276
▁hué	-12.4276
▁papa	-12.4277
▁dray	-12.4277
▁đốp	-12.4277
▁tacos	-12.4277
▁173/68	-12.4277
▁senses	-12.4278
▁haiphong	-12.4278
▁nổ	-12.4279
▁thuấn	-12.4279
▁flan	-12.4279
▁dining	-12.428
▁lây	-12.4281
▁464/17	-12.4281
▁417/23	-12.4281
▁226/43	-12.4281
hlt	-12.4281
▁lọt	-12.4282
▁ráng	-12.4284
▁thuâ	-12.4284
▁madame	-12.4285
▁parkson	-12.4286
▁lens	-12.4286
▁quabg	-12.4286
▁lich	-12.4287
▁dơn	-12.4288
▁2-9	-12.4288
▁383/3	-12.4288
2.11	-12.4288
▁lốc	-12.4289
▁kmar	-12.429
▁bươi	-12.429
▁20/5	-12.429
▁cỗ	-12.4291
▁234/29	-12.4291
▁motorbikes	-12.4294
▁đau	-12.4294
▁bóp	-12.4295
▁624/12	-12.4297
▁chuồng	-12.4297
▁pheo	-12.4298
▁209/20	-12.43
▁cv	-12.4301
▁cât	-12.4303
100	-12.4304
▁lanchi	-12.4306
▁thuơ	-12.4308
▁stone	-12.431
vietpost	-12.431
▁kđ	-12.4311
▁76/35	-12.4312
▁nă	-12.4314
▁004	-12.4316
104	-12.4317
▁133/24	-12.4318
▁thổi	-12.4321
▁133/22	-12.4322
▁rinh	-12.4324
▁205/20	-12.4328
▁lonh	-12.434
cnt	-12.4342
▁150/6/	-12.4344
ón	-12.4346
wng	-12.4351
▁tách	-12.4359
▁54/2	-12.4361
▁phài	-12.4366
▁154/1	-12.4367
lab	-12.4368
▁nài	-12.4372
119	-12.4374
▁ez	-12.4378
▁schools	-12.4387
▁quạ	-12.4391
▁đien	-12.4393
▁pang	-12.4395
▁416/1	-12.4397
▁178/1	-12.4398
▁asian	-12.44
▁đươn	-12.4402
▁ever	-12.4402
▁112/11	-12.4405
▁48/6	-12.4406
binh	-12.4412
.9	-12.4414
▁sia	-12.4414
▁21/4	-12.4416
▁quố	-12.442
▁độn	-12.4421
▁chồn	-12.4425
▁giấ	-12.4427
▁ace	-12.4431
▁bđ	-12.4434
▁1648	-12.4441
sen	-12.4444
ous	-12.4446
▁lơi	-12.4449
▁14/50	-12.4453
vs	-12.4456
▁thà	-12.4461
we	-12.4464
▁35/5	-12.4468
oli	-12.4469
05-3	-12.4472
ctech	-12.4474
▁2/89/	-12.4481
▁ngao	-12.4481
▁id	-12.4493
▁1287	-12.4501
▁hs	-12.451
▁wh	-12.4522
▁11/6	-12.4527
▁ver	-12.4529
▁1/84	-12.4557
hon	-12.4557
▁15/25	-12.4557
▁cow	-12.4558
3/58	-12.456
iềng	-12.457
hùng	-12.4576
▁118/3	-12.4581
▁vus	-12.4581
▁say	-12.4584
▁shi	-12.4596
▁45/7	-12.4608
rô	-12.4609
▁hú	-12.4619
ock	-12.4622
▁2-6	-12.4626
▁968	-12.4627
▁24/9	-12.4628
▁17/4	-12.4632
uyên	-12.4633
gear	-12.4633
.11	-12.465
▁1011	-12.4658
▁les	-12.4661
▁xăn	-12.4664
▁1343	-12.4665
rus	-12.4679
▁ohu	-12.468
tto	-12.4681
▁22/12	-12.4707
ger	-12.4708
▁68/13	-12.4713
ope	-12.4714
▁2025	-12.4718
▁cara	-12.4721
▁62/1	-12.4725
▁599	-12.4727
iên	-12.473
ài	-12.4743
▁83/1	-12.4747
▁huo	-12.4756
3-4	-12.4761
▁nhá	-12.4765
ỉnh	-12.4772
uil	-12.4773
▁viêj	-12.4777
444	-12.4782
▁421/2	-12.4793
lh	-12.4806
▁ep	-12.4817
▁tthc	-12.4822
▁khuong	-12.4834
▁lả	-12.4862
▁rom	-12.4883
ham	-12.4885
▁khac	-12.4885
▁107/2	-12.4895
▁989	-12.4912
▁luxu	-12.4913
rang	-12.492
▁thie	-12.4922
▁meli	-12.4954
esco	-12.4961
▁45/1	-12.4964
▁tó	-12.4969
▁811	-12.4976
▁sl	-12.4997
▁208/2	-12.5008
▁106/2	-12.5008
624	-12.5034
▁86/12	-12.5035
▁ting	-12.5037
ling	-12.5048
-48	-12.5068
▁thạ	-12.5076
▁54/5	-12.5079
▁lou	-12.5084
06-3	-12.509
hen	-12.51
ạn	-12.5116
▁duoc	-12.5125
▁160/1	-12.5128
301	-12.5129
▁iu	-12.5139
6-1	-12.5142
▁luan	-12.5148
▁150/2	-12.5151
▁21/1	-12.5175
▁đấ	-12.5183
▁nạ	-12.519
▁pố	-12.5193
sel	-12.5198
▁drô	-12.5217
nes	-12.5225
-72	-12.5227
tori	-12.5231
08-0	-12.5235
▁898	-12.5237
ệnh	-12.5245
sai	-12.525
130	-12.5251
iện	-12.5261
▁78/3	-12.5274
▁32/4	-12.5276
3-3	-12.5276
▁22/9	-12.5294
▁roma	-12.5304
▁39/5	-12.5306
hương	-12.5308
▁khiê	-12.531
jj	-12.5317
▁69/4	-12.532
qf	-12.5324
sport	-12.5325
ត	-12.5329
mobile	-12.533
lẩu	-12.533
block	-12.533
cổng	-12.533
cafe	-12.533
tuấn	-12.533
▁trò	-12.533
phủ	-12.533
iều	-12.5335
2000	-12.5338
mộ	-12.5354
▁lì	-12.5369
ưỡng	-12.5372
▁india	-12.5376
▁cocktail	-12.5377
▁nghì	-12.5377
▁trán	-12.5379
▁khổ	-12.5381
▁tropic	-12.5381
▁regal	-12.5382
front	-12.5382
ш	-12.5382
南	-12.5382
▁guitar	-12.5382
▁wonder	-12.5382
那	-12.5382
huflit	-12.5382
oréal	-12.5382
robbins	-12.5382
▁activ	-12.5382
▁branch	-12.5382
▁búyt	-12.5382
▁caltex	-12.5382
▁caodaism	-12.5382
▁castle	-12.5382
▁cemetery	-12.5382
▁chelsea	-12.5382
▁chevrolet	-12.5382
▁chấu	-12.5382
▁chằm	-12.5382
▁citizen	-12.5382
▁cottage	-12.5382
▁cẩu	-12.5382
▁cậy	-12.5382
▁display	-12.5382
▁eastern	-12.5382
▁ecocham	-12.5382
▁education	-12.5382
▁formosa	-12.5382
▁fresco	-12.5382
▁gelato	-12.5382
▁glass	-12.5382
▁gắn	-12.5382
▁hapulico	-12.5382
▁joint	-12.5382
▁khành	-12.5382
▁lagoon	-12.5382
▁leadvisors	-12.5382
▁lexington	-12.5382
▁living	-12.5382
▁lômônôxốp	-12.5382
▁lụi	-12.5382
▁mandarin	-12.5382
▁masjid	-12.5382
▁medlatec	-12.5382
▁memory	-12.5382
▁metropolis	-12.5382
▁niệu	-12.5382
▁nậu	-12.5382
▁origami	-12.5382
▁pizzeria	-12.5382
▁pvoil	-12.5382
▁quãng	-12.5382
▁quóc	-12.5382
▁qúan	-12.5382
▁raymondienne	-12.5382
▁reception	-12.5382
▁samsonite	-12.5382
▁shakespeare	-12.5382
▁skechers	-12.5382
▁steel	-12.5382
▁summer	-12.5382
▁totalenergies	-12.5382
▁traffic	-12.5382
▁trằm	-12.5382
▁tằm	-12.5382
▁vắng	-12.5382
▁xoáy	-12.5382
▁yamato	-12.5382
▁yummy	-12.5382
▁đunhf	-12.5382
▁đằm	-12.5382
上	-12.5382
新	-12.5382
水弄公路	-12.5382
荣	-12.5382
▁367/127	-12.5382
▁422/14/8	-12.5382
▁asean	-12.5382
▁chéo	-12.5382
▁cosmo	-12.5382
▁ninja	-12.5382
▁nồi	-12.5382
▁đĩa	-12.5382
▁đũa	-12.5382
▁honey	-12.5382
▁hịc	-12.5382
▁nhồi	-12.5382
▁nếp	-12.5382
▁oppo	-12.5382
▁russia	-12.5382
▁sớm	-12.5382
▁chateau	-12.5382
▁body	-12.5382
▁bục	-12.5382
▁joyhomes	-12.5382
▁capella	-12.5382
▁cpxd	-12.5382
1.01	-12.5382
▁59-61	-12.5382
▁organic	-12.5382
▁specialty	-12.5382
▁41-43	-12.5382
▁zozo	-12.5382
▁6/9/26	-12.5382
▁bird	-12.5382
▁33-35	-12.5382
▁apec	-12.5382
▁egg	-12.5382
▁handico	-12.5382
▁centrosa	-12.5382
▁foot	-12.5382
▁route	-12.5382
▁llum	-12.5382
▁angel	-12.5382
▁delta	-12.5382
▁điek	-12.5382
▁guôi	-12.5382
▁goldview	-12.5382
▁supermarket	-12.5382
▁mhdi	-12.5382
▁âp	-12.5382
▁july	-12.5383
▁brewing	-12.5383
▁face	-12.5383
▁monbay	-12.5383
▁vinwonders	-12.5383
▁ecogreen	-12.5383
▁ruông	-12.5383
intercontinental	-12.5383
▁vẹt	-12.5383
▁nguyển	-12.5383
▁xiêm	-12.5383
▁xuôi	-12.5383
▁kbang	-12.5383
▁4305/1	-12.5383
▁chước	-12.5383
▁vinatex	-12.5383
▁story	-12.5383
▁oce	-12.5383
▁bhd	-12.5383
▁inox	-12.5383
▁417/69	-12.5384
▁tasco	-12.5384
▁samco	-12.5384
▁nguyến	-12.5384
▁intel	-12.5384
▁minor	-12.5384
▁422/14/18	-12.5385
▁lăm	-12.5385
▁charming	-12.5385
▁643/9/28	-12.5385
▁soài	-12.5385
▁truyen	-12.5385
▁nike	-12.5385
▁ubnh	-12.5385
lang	-12.5386
▁show	-12.5386
▁61/33/4	-12.5386
▁kỉ	-12.5386
▁right	-12.5386
▁sảo	-12.5387
▁quens	-12.5387
▁goẻ	-12.5387
-0977	-12.5388
▁rây	-12.5388
▁buou	-12.5388
▁61/33/2	-12.5388
▁râm	-12.5388
▁70000	-12.5388
▁caron	-12.5388
▁417/49	-12.5389
▁lúp	-12.5389
+9	-12.5389
▁sáo	-12.539
▁640/21	-12.5391
2.07	-12.5391
▁rõ	-12.5391
▁toòng	-12.5391
▁ceo	-12.5391
▁hqng	-12.5391
▁mồi	-12.5391
▁triết	-12.5391
▁ngát	-12.5391
▁ធ	-12.5392
▁mẻ	-12.5392
▁buoi	-12.5392
▁đhct	-12.5392
▁99/110/	-12.5392
▁mery	-12.5394
▁glong	-12.5394
▁lila	-12.5395
12-31	-12.5396
▁rubi	-12.5396
▁triêm	-12.5396
▁5-7	-12.5397
▁thuôc	-12.5397
▁soho	-12.5397
▁sỏ	-12.5399
▁23-25	-12.5399
▁câp	-12.5399
▁đốt	-12.54
▁đổn	-12.5401
▁xoi	-12.5401
▁ngoz	-12.5402
▁pico	-12.5402
▁ປ	-12.5403
▁bibi	-12.5403
▁maris	-12.5403
▁pne	-12.5404
▁fields	-12.5404
▁games	-12.5405
▁马	-12.5405
▁ອງ	-12.5405
▁kị	-12.5405
▁sình	-12.5406
▁goer	-12.5406
▁231/30/	-12.5406
▁boom	-12.5408
▁sora	-12.5409
▁5000	-12.5409
tique	-12.5409
▁bịnh	-12.541
wq	-12.541
▁miêng	-12.5412
mmm	-12.5412
▁15-17	-12.5412
▁shing	-12.5413
▁sẻ	-12.5414
▁sour	-12.5415
▁phôi	-12.5415
▁duân	-12.5416
▁halo	-12.5417
▁hâu	-12.5418
▁iq	-12.5419
▁133/36	-12.5421
▁bql	-12.5422
▁54/1	-12.5422
▁huan	-12.5422
▁42/60	-12.5424
▁12-14	-12.5424
▁nôn	-12.543
▁rh	-12.543
▁大	-12.5431
wx	-12.5433
▁vao	-12.5433
▁khảu	-12.5433
▁dạo	-12.5434
▁chảng	-12.5434
▁eon	-12.5435
▁100000	-12.5436
▁dãn	-12.5438
công	-12.5439
nv	-12.5441
▁nhien	-12.5441
▁83/25	-12.5441
▁143/1	-12.5443
▁bìn	-12.5443
▁rot	-12.5447
▁now	-12.5448
▁tội	-12.5449
▁159/6	-12.5449
▁30-4	-12.5449
▁в	-12.545
▁khal	-12.5451
▁classic	-12.5457
▁hốt	-12.5458
▁dạt	-12.546
▁mum	-12.5462
teria	-12.5462
▁61/39	-12.5466
▁vtc	-12.5468
▁thiềng	-12.5468
▁ktc	-12.5471
▁bep	-12.5474
▁6-8	-12.5476
▁cút	-12.5476
269	-12.5477
▁35/45	-12.5479
▁kings	-12.5482
▁her	-12.5482
▁nhìn	-12.5493
▁duck	-12.5494
▁chuong	-12.5495
▁đòng	-12.5499
▁tiể	-12.55
▁thốc	-12.5502
▁pvf	-12.5506
859	-12.5508
▁79/24	-12.5512
▁82/14	-12.5518
▁bết	-12.5519
1-15	-12.5523
▁103/15	-12.5524
▁1/96	-12.553
ỉ	-12.5532
oshi	-12.5533
▁44/23	-12.5534
phúc	-12.5534
ique	-12.5544
▁27/4	-12.5545
▁40/28	-12.5554
▁vụng	-12.5554
-33	-12.5555
▁1170	-12.556
909	-12.5567
uốc	-12.5582
▁cre	-12.5584
hanh	-12.5586
▁cell	-12.5591
▁yao	-12.5611
ỏng	-12.5615
▁mãi	-12.5623
▁đìn	-12.5639
▁resorts	-12.5639
▁nơn	-12.5639
▁ngoi	-12.5649
▁2273	-12.5652
▁cj	-12.5657
▁27/6	-12.5662
▁61/10	-12.5668
878	-12.5675
▁phưo	-12.5677
▁35/10	-12.5679
▁26/19	-12.568
▁roo	-12.5698
▁39/10	-12.5699
549	-12.5705
▁33/4	-12.5721
▁coe	-12.5728
ick	-12.5741
▁948	-12.5741
oya	-12.5751
▁82/2	-12.5758
▁1137	-12.5762
▁28/5	-12.5769
▁148/1	-12.5776
▁976	-12.5777
inh	-12.5787
▁nano	-12.5803
▁niền	-12.5803
▁944	-12.5805
▁boc	-12.5807
299	-12.5807
▁lem	-12.5808
▁hôm	-12.5815
1-01	-12.5825
pho	-12.5835
▁mă	-12.5845
▁124/2	-12.586
cam	-12.5864
▁28/9	-12.5867
ễn	-12.5876
ence	-12.5894
▁đú	-12.5897
▁vuc	-12.5898
▁876	-12.59
▁sả	-12.5901
▁93/4	-12.5919
▁lôp	-12.593
▁cy	-12.5944
▁del	-12.5951
197	-12.5953
▁76/6	-12.5957
3-2	-12.5972
+7	-12.5977
ashi	-12.5983
ibi	-12.5991
▁sui	-12.6005
▁1007	-12.6031
ochi	-12.6035
▁vj	-12.6036
▁vê	-12.6039
▁prin	-12.6042
bia	-12.6045
▁261/15/8	-12.6058
05-0	-12.6072
nghi	-12.6086
▁met	-12.6099
▁1017	-12.6138
180	-12.615
hong	-12.6171
▁biê	-12.6175
ọt	-12.6181
ơng	-12.6192
▁duon	-12.6202
▁alo	-12.6213
▁tỏ	-12.6215
▁sạ	-12.6224
ại	-12.623
▁145/20/	-12.6235
▁nè	-12.6244
▁blues	-12.6245
▁cươ	-12.6251
▁66/1	-12.6257
5+	-12.6269
omi	-12.628
▁75/2	-12.6282
▁sis	-12.6284
ffe	-12.6303
8-5	-12.6325
tho	-12.6326
▁pạ	-12.6332
▁56/2	-12.6338
1-03	-12.6353
▁yes	-12.6355
har	-12.6367
hỉ	-12.6373
▁té	-12.6381
480	-12.6397
▁fun	-12.64
▁86/1	-12.6419
duy	-12.645
07-0	-12.6459
lie	-12.6462
▁kham	-12.6475
▁rá	-12.6475
iểm	-12.6475
ưng	-12.6477
▁dố	-12.6493
▁chồ	-12.6498
▁lố	-12.6504
▁nị	-12.6506
613	-12.6544
▁kala	-12.6546
ອ	-12.6576
大	-12.6577
school	-12.6577
style	-12.6578
iểu	-12.6578
ក	-12.6579
ព	-12.6579
techcom	-12.658
xuân	-12.658
xì	-12.6581
room	-12.6581
moon	-12.6584
lux	-12.6584
▁gele	-12.6586
▁khá	-12.6588
hiền	-12.659
▁rù	-12.6599
thuy	-12.6602
say	-12.6609
ưởng	-12.661
▁audi	-12.661
з	-12.6611
iếp	-12.6613
-033	-12.6616
/3/4	-12.6623
▁hiệ	-12.6624
▁adventure	-12.6626
▁thiê	-12.6627
▁silver	-12.6627
▁thắn	-12.6627
▁rạc	-12.6627
▁nọi	-12.6629
▁nươ	-12.663
▁mườn	-12.663
▁khò	-12.6631
镇	-12.6631
▁lợ	-12.6631
▁cloth	-12.6631
▁lăn	-12.6632
ຍ	-12.6632
▁zei	-12.6632
▁106°4	-12.6632
ໂ	-12.6632
ж	-12.6632
х	-12.6632
ຊ	-12.6632
ຮ	-12.6632
▁150/28/15	-12.6632
▁197/318/3	-12.6632
▁392-394	-12.6632
▁640/20/12	-12.6632
▁803/23/10	-12.6632
▁99/110/85	-12.6632
▁american	-12.6632
▁artemis	-12.6632
▁basket	-12.6632
▁beverly	-12.6632
▁bonnard	-12.6632
▁breakfast	-12.6632
▁british	-12.6632
▁bẽne	-12.6632
▁cambridge	-12.6632
▁clinker	-12.6632
▁crazy	-12.6632
▁culture	-12.6632
▁dận	-12.6632
▁elegant	-12.6632
▁fantasy	-12.6632
▁football	-12.6632
▁geiner	-12.6632
▁giaikhat	-12.6632
▁gigamall	-12.6632
▁glamping	-12.6632
▁goethe	-12.6632
▁grammar	-12.6632
▁gái	-12.6632
▁haidilao	-12.6632
▁hasaki	-12.6632
▁indigo	-12.6632
▁jasmine	-12.6632
▁kontum	-12.6632
▁kumho	-12.6632
▁lefèbvre	-12.6632
▁london	-12.6632
▁lếu	-12.6632
▁memorial	-12.6632
▁mercure	-12.6632
▁mận	-12.6632
▁natural	-12.6632
▁northern	-12.6632
▁olympic	-12.6632
▁original	-12.6632
▁oxalat	-12.6632
▁pegasus	-12.6632
▁people	-12.6632
▁phanxicô	-12.6632
▁ponhan	-12.6632
▁prime	-12.6632
▁promenade	-12.6632
▁prí	-12.6632
▁pắk	-12.6632
▁railway	-12.6632
▁relax	-12.6632
▁riviera	-12.6632
▁sandwich	-12.6632
▁statue	-12.6632
▁techtronic	-12.6632
▁thắc	-12.6632
▁tourane	-12.6632
▁triumph	-12.6632
▁trật	-12.6632
▁trẹm	-12.6632
▁tắng	-12.6632
▁valve	-12.6632
▁verandah	-12.6632
▁vínchool	-12.6632
▁wellspring	-12.6632
▁william	-12.6632
▁ênuôl	-12.6632
▁ðinh	-12.6632
▁đẩng	-12.6632
▁đặt	-12.6632
▁高鐵芽庄站	-12.6632
子	-12.6632
江	-12.6632
▁192/43/2	-12.6632
▁canada	-12.6632
▁dấu	-12.6632
▁from	-12.6632
▁nhím	-12.6632
▁sugar	-12.6632
▁sộp	-12.6632
▁tigon	-12.6632
▁bêngj	-12.6632
▁chuột	-12.6632
▁piano	-12.6632
▁snake	-12.6632
▁vpmed	-12.6632
▁cannon	-12.6632
▁environmental	-12.6632
▁66/19/8	-12.6632
▁noxh	-12.6632
民	-12.6632
▁three	-12.6632
▁ttvh	-12.6632
▁ciao	-12.6632
▁downtown	-12.6632
▁table	-12.6632
▁taiwan	-12.6632
▁វជ	-12.6632
▁cardin	-12.6632
▁mttqvn	-12.6632
fpg	-12.6632
▁19/14/11	-12.6632
▁shinhan	-12.6632
▁greensm	-12.6632
▁34-36	-12.6632
▁37-39	-12.6632
▁pierre	-12.6632
▁27-29	-12.6632
▁heart	-12.6632
▁sailing	-12.6632
▁vnpost	-12.6632
▁bonsai	-12.6632
▁hanshin	-12.6632
▁institute	-12.6632
▁crab	-12.6632
▁bld	-12.6632
▁bonard	-12.6632
▁stock	-12.6632
cgr	-12.6633
▁រក	-12.6633
▁knia	-12.6633
▁qtsc	-12.6633
▁hotte	-12.6633
▁phượt	-12.6633
▁fmc	-12.6633
▁đuôi	-12.6633
▁290/56/13/	-12.6633
▁muồng	-12.6633
▁xỉn	-12.6633
▁techno	-12.6633
▁603/54	-12.6633
▁fishing	-12.6633
▁nghõ	-12.6633
▁oyo	-12.6633
▁suất	-12.6634
▁check	-12.6634
▁suốt	-12.6634
▁ngần	-12.6634
▁hươu	-12.6634
▁noiij	-12.6634
▁39758	-12.6634
▁vnu	-12.6634
▁vươn	-12.6634
▁réo	-12.6634
▁gối	-12.6635
▁monde	-12.6635
▁trượng	-12.6635
▁miều	-12.6635
▁chops	-12.6635
▁54-56	-12.6635
▁762/36	-12.6635
ville	-12.6635
▁20-9	-12.6635
▁688/57	-12.6635
▁choè	-12.6635
tas	-12.6636
▁506/49	-12.6636
▁chiền	-12.6636
▁xối	-12.6636
▁nghiêu	-12.6636
▁twin	-12.6636
າງ	-12.6636
▁rưng	-12.6636
▁rớ	-12.6636
▁tuôi	-12.6636
▁resco	-12.6636
▁lèo	-12.6637
▁738/20	-12.6637
▁672/6	-12.6637
▁detech	-12.6637
▁31-33	-12.6638
▁380/46	-12.6638
▁241/61	-12.6638
▁daily	-12.6639
▁estates	-12.6639
▁thấy	-12.6639
ượn	-12.6639
bby	-12.6639
▁take	-12.6639
▁windows	-12.6639
▁roasters	-12.6639
▁training	-12.664
▁thảm	-12.664
▁thỉnh	-12.664
18-03	-12.6641
▁trade	-12.6641
▁thằng	-12.6641
▁thàn	-12.6642
▁eton	-12.6642
▁vách	-12.6642
-0975	-12.6642
▁vtv	-12.6642
▁young	-12.6642
▁hùm	-12.6643
▁rét	-12.6643
▁joy	-12.6643
▁335/28	-12.6643
▁xuye	-12.6644
▁26-28	-12.6644
▁thài	-12.6644
▁bling	-12.6646
▁mobi	-12.6646
▁chửng	-12.6646
▁quoi	-12.6647
▁meat	-12.6647
▁541/16/	-12.6648
▁dộ	-12.6648
▁miê	-12.6648
▁43/99	-12.665
▁ngò	-12.665
▁237/32	-12.665
▁phồng	-12.665
▁nature	-12.6651
▁halong	-12.6652
▁waters	-12.6652
▁xâm	-12.6652
vkhu	-12.6653
▁tnr	-12.6653
▁611/2	-12.6653
▁giành	-12.6653
▁shine	-12.6654
▁đmt	-12.6655
▁ót	-12.6657
▁atk	-12.6659
▁mary	-12.6661
▁nvh	-12.6661
▁thốn	-12.6662
ện	-12.6663
▁serviced	-12.6664
▁dreams	-12.6664
▁thiem	-12.6664
▁toco	-12.6664
▁keh	-12.6665
▁psi	-12.6666
▁230/21	-12.6667
▁tich	-12.6668
▁tpct	-12.6668
▁bạnh	-12.667
▁cườ	-12.6672
▁179/10/	-12.6673
▁xạc	-12.6673
▁miếng	-12.6676
▁lìa	-12.6676
bgf	-12.6678
bro	-12.6679
▁đung	-12.668
▁tóa	-12.668
▁yuk	-12.6681
▁haus	-12.6682
▁sôr	-12.6684
208/8/17	-12.6686
▁catp	-12.6689
▁pge	-12.6691
▁chèo	-12.6692
▁phòn	-12.6692
▁kheo	-12.6696
▁yông	-12.6699
▁thoin	-12.67
▁nesta	-12.6701
▁over	-12.6702
▁pow	-12.6703
▁tms	-12.6707
▁mix	-12.6713
▁5/87	-12.6714
▁8-14	-12.6715
pub	-12.6716
▁238/4	-12.6724
▁11-11	-12.6724
▁phap	-12.6724
▁ກ	-12.6725
▁32/53	-12.6731
▁chen	-12.6738
▁74/3	-12.674
▁link	-12.6745
667	-12.6748
▁87/9	-12.675
▁chuyện	-12.6751
-12000009	-12.6755
▁dsa	-12.6756
▁58/22	-12.676
▁144/7	-12.6761
▁hole	-12.6763
▁italian	-12.6765
▁goi	-12.6773
▁1570	-12.6774
▁bud	-12.6782
▁74/11/	-12.6783
▁amy	-12.6787
▁111/8	-12.6789
-64	-12.6789
▁52/17	-12.6795
▁43/4	-12.6795
▁890	-12.6802
▁82/10	-12.6803
▁1060	-12.6806
▁ròn	-12.6815
▁đem	-12.6815
▁gf	-12.6815
▁cáy	-12.6817
lac	-12.6818
▁vinfa	-12.6819
▁bén	-12.6835
▁thả	-12.6837
ấy	-12.6838
▁35/11	-12.6856
▁khong	-12.6856
▁xín	-12.6861
▁fam	-12.6862
▁dog	-12.6866
▁55/19	-12.6873
▁vps	-12.6877
▁tuk	-12.6881
hand	-12.6883
▁bed	-12.6885
▁nư	-12.6886
▁2/75/	-12.6887
ờn	-12.6898
▁ngá	-12.6899
▁1199	-12.6904
▁thươ	-12.6905
▁26/22	-12.6909
901	-12.6911
▁cáng	-12.6912
tour	-12.6912
wg	-12.6923
17-3	-12.6925
▁sma	-12.6926
pack	-12.6927
▁740	-12.6931
▁tring	-12.6934
tư	-12.6942
▁team	-12.6947
▁36/14	-12.6947
▁39/16	-12.6955
▁dán	-12.6956
▁base	-12.696
▁45/10	-12.6975
▁496/9	-12.6978
▁nhú	-12.6979
▁meta	-12.698
sang	-12.6986
cao	-12.6987
▁intr	-12.6994
339	-12.6999
▁dso	-12.7001
379	-12.7042
1/58	-12.7065
off	-12.7066
▁ry	-12.7074
▁ỏ	-12.7083
1-02	-12.7115
▁pur	-12.7116
▁1508	-12.712
▁1058	-12.7128
▁109/7	-12.7131
▁294/2	-12.7137
▁80/12	-12.7143
602	-12.7174
▁xú	-12.7182
dul	-12.7243
01/0	-12.7248
▁512/1/2	-12.7263
2-12	-12.7267
▁vita	-12.7271
▁tâp	-12.7294
▁168/2	-12.7298
▁der	-12.7309
▁tun	-12.7325
02-3	-12.7355
▁ré	-12.7357
spa	-12.7372
ок	-12.7386
▁6-2	-12.7413
▁chá	-12.7432
880	-12.7442
▁235/6	-12.745
7/53	-12.7457
▁142/3	-12.7459
hao	-12.7476
570	-12.7494
vas	-12.7497
▁1166/	-12.7508
tina	-12.7514
oda	-12.7517
ocj	-12.752
▁dla	-12.7524
727	-12.7528
▁color	-12.7529
▁tuế	-12.7548
▁9999	-12.7553
ves	-12.7553
384	-12.7575
▁râ	-12.7579
341	-12.758
sto	-12.7587
▁bou	-12.7599
▁còi	-12.76
▁74/6	-12.7606
nder	-12.7625
17-2	-12.7635
▁dune	-12.7651
ment	-12.7655
▁xx	-12.7676
5-11	-12.7696
▁238/2	-12.7718
52.	-12.7722
▁trườ	-12.7723
▁32/8/	-12.7742
▁app	-12.7744
▁vila	-12.7757
▁qué	-12.7761
▁bã	-12.7767
elia	-12.7773
▁vìn	-12.7794
▁chẹ	-12.7823
885	-12.7824
/150	-12.7835
▁83/7	-12.7892
▁quàn	-12.7899
▁ot	-12.7916
each	-12.792
▁đoi	-12.7934
agon	-12.7936
post	-12.7952
▁xư	-12.7953
farm	-12.7977
▁mipe	-12.7992
hằng	-12.7997
ỹ	-12.7999
ງ	-12.7999
450	-12.8002
▁mư	-12.8003
ມ	-12.8007
giá	-12.8007
point	-12.8007
đú	-12.8008
ល	-12.8008
white	-12.8008
pccc	-12.8008
garden	-12.8008
tuyết	-12.8008
trúc	-12.8008
châu	-12.8009
kđt	-12.8009
quảng	-12.8009
thuỷ	-12.8009
phổ	-12.8009
định	-12.8009
hẻm	-12.801
ube	-12.801
time	-12.8011
petro	-12.8012
phuong	-12.8012
đông	-12.8012
▁khó	-12.8013
hoài	-12.8014
stone	-12.8014
khanh	-12.8014
đào	-12.8015
nova	-12.8028
uyền	-12.8031
▁lava	-12.8034
dầu	-12.8034
▁manufacture	-12.8035
▁kiệ	-12.8042
▁cor	-12.805
▁28-30	-12.8051
▁khoá	-12.8054
▁passio	-12.8055
▁cruise	-12.8055
▁nhù	-12.8055
▁gạc	-12.8055
▁suite	-12.8056
▁trạn	-12.8058
ức	-12.8059
▁centa	-12.806
п	-12.806
▁bitcoin	-12.806
б	-12.806
ະ	-12.806
▁11°0	-12.806
▁vinshool	-12.806
小	-12.806
明	-12.806
ology	-12.806
î	-12.806
ຄ	-12.806
ញ	-12.806
▁106°37	-12.806
▁241-243	-12.806
▁53/103/25	-12.806
▁almus	-12.806
▁ankroet	-12.806
▁aristino	-12.806
▁artbook	-12.806
▁astoria	-12.806
▁blossom	-12.806
▁bobapop	-12.806
▁bonjour	-12.806
▁bourdais	-12.806
▁breadtalk	-12.806
▁bưới	-12.806
▁cantavil	-12.806
▁celadon	-12.806
▁cháybao	-12.806
▁chặt	-12.806
▁college	-12.806
▁connect	-12.806
▁cyclo	-12.806
▁decathlon	-12.806
▁einstein	-12.806
▁gaucho	-12.806
▁goeẻtek	-12.806
▁greenwich	-12.806
▁gởi	-12.806
▁hokkaido	-12.806
▁homyland	-12.806
▁hặc	-12.806
▁indomie	-12.806
▁investment	-12.806
▁journey	-12.806
▁loseby	-12.806
▁lỏong	-12.806
▁majestic	-12.806
▁matrix	-12.806
▁memories	-12.806
▁midori	-12.806
▁mizuki	-12.806
▁mẩm	-12.806
▁ngỗng	-12.806
▁nhọn	-12.806
▁optorun	-12.806
▁pallet	-12.806
▁panasonic	-12.806
▁pascal	-12.806
▁plastic	-12.806
▁pottery	-12.806
▁private	-12.806
▁qisda	-12.806
▁radisson	-12.806
▁regency	-12.806
▁reserve	-12.806
▁residential	-12.806
▁runway	-12.806
▁rầy	-12.806
▁skylake	-12.806
▁smoothie	-12.806
▁splendora	-12.806
▁subaru	-12.806
▁tavern	-12.806
▁technologies	-12.806
▁thật	-12.806
▁tomyum	-12.806
▁tonkin	-12.806
▁trekking	-12.806
▁universal	-12.806
▁vinacomin	-12.806
▁wheel	-12.806
▁wifi	-12.806
▁вьетнам	-12.806
天	-12.806
店	-12.806
水	-12.806
站	-12.806
-027435	-12.806
▁chấm	-12.806
▁could	-12.806
▁cuộc	-12.806
▁cạy	-12.806
▁feliz	-12.806
▁hongkong	-12.806
▁kitty	-12.806
▁móc	-12.806
▁nidec	-12.806
▁sharing	-12.806
▁srông	-12.806
▁sọi	-12.806
▁torki	-12.806
▁ubnn	-12.806
▁điẹn	-12.806
@	-12.806
▁94-96	-12.806
▁halal	-12.806
▁john	-12.806
▁nòi	-12.806
▁phnom	-12.806
▁shack	-12.806
北	-12.806
金	-12.806
▁money	-12.8061
越	-12.8061
ч	-12.8061
▁1146/39	-12.8061
▁aowr	-12.8061
▁checkpoint	-12.8061
▁nầm	-12.8061
▁reef	-12.8061
▁72-74	-12.8061
▁77-79	-12.8061
▁bavet	-12.8061
▁biếc	-12.8061
▁jinsung	-12.8061
▁ptlc	-12.8061
▁ẹo	-12.8061
▁bitcoinvn	-12.8061
▁clean	-12.8061
▁ufm	-12.8061
▁65-67	-12.8061
▁chiếm	-12.8061
▁share	-12.8061
▁bấc	-12.8061
▁garment	-12.8061
▁56-58	-12.8061
▁xphomes	-12.8061
▁42-44	-12.8061
▁patisserie	-12.8061
▁17/18/15	-12.8061
▁banyan	-12.8061
▁nhâtphuong	-12.8061
flex	-12.8061
▁otô	-12.8061
▁38-40	-12.8061
▁58/74	-12.8061
▁domino	-12.8061
ки	-12.8061
▁50-52	-12.8061
▁kombo	-12.8061
▁32-34	-12.8061
▁កជ	-12.8061
1.03	-12.8061
▁aloha	-12.8061
▁crossing	-12.8061
▁brown	-12.8061
▁កក	-12.8061
▁vivocity	-12.8061
▁champa	-12.8061
637,	-12.8061
▁fimo	-12.8061
▁nitori	-12.8061
▁tiễn	-12.8062
▁denso	-12.8062
▁khọt	-12.8062
▁vuện	-12.8062
▁kienlong	-12.8062
▁vespa	-12.8062
▁ischool	-12.8062
48-13	-12.8062
▁lưỡng	-12.8062
▁hvnh	-12.8062
▁6-19	-12.8062
▁hẹ	-12.8062
▁akka	-12.8062
▁53/81/30	-12.8063
▁siêng	-12.8063
▁trăn	-12.8063
▁only	-12.8063
▁hăng	-12.8063
▁khỏi	-12.8063
▁496/63	-12.8063
▁nó	-12.8063
▁đrang	-12.8063
▁biễn	-12.8063
▁mọt	-12.8063
▁nhơ	-12.8063
▁cháu	-12.8063
▁dộng	-12.8063
▁http	-12.8063
▁mỉ	-12.8064
▁coqf	-12.8064
▁lẽ	-12.8064
▁amour	-12.8064
▁vital	-12.8064
▁dội	-12.8064
▁dtnt	-12.8064
▁jean	-12.8064
▁180/92	-12.8064
▁thpat	-12.8064
▁deep	-12.8065
▁sạp	-12.8065
▁nuê	-12.8065
▁ngâu	-12.8065
▁532/28	-12.8065
▁ảo	-12.8065
▁529/13	-12.8065
▁rubik	-12.8065
-0964	-12.8065
▁giông	-12.8066
▁lẹ	-12.8066
▁rieu	-12.8066
▁250/80	-12.8066
▁lề	-12.8066
-0947	-12.8066
▁mốt	-12.8066
▁susu	-12.8066
▁passion	-12.8066
▁rích	-12.8067
▁ngây	-12.8067
▁vcn	-12.8067
▁khien	-12.8068
▁tvu	-12.8068
▁simco	-12.8068
▁bđs	-12.8068
▁dàm	-12.8068
▁643/40	-12.8069
▁ró	-12.8069
▁khòn	-12.8069
▁miệt	-12.8069
▁ohus	-12.8069
▁pét	-12.8069
▁vẻ	-12.8069
2.09	-12.807
holic	-12.807
690	-12.807
▁trông	-12.807
▁chuyen	-12.807
▁mieu	-12.8071
▁đứng	-12.8071
▁scooter	-12.8071
▁fox	-12.8071
▁1034/1/	-12.8071
▁greenhouse	-12.8072
▁lốt	-12.8072
▁493/13	-12.8072
▁ruong	-12.8074
▁concept	-12.8074
▁vinata	-12.8074
▁beef	-12.8074
▁sáp	-12.8074
▁coff	-12.8075
▁thở	-12.8075
▁yves	-12.8075
▁books	-12.8076
▁niêm	-12.8076
▁lót	-12.8076
▁mách	-12.8077
▁lyly	-12.8077
▁mảng	-12.8077
▁140/66	-12.8077
▁hey	-12.8077
▁múc	-12.8078
▁thats	-12.8078
▁gìn	-12.8078
▁ptdt	-12.8079
▁475/20	-12.8079
▁beans	-12.808
▁soos	-12.808
▁gts	-12.808
▁sẽ	-12.8081
▁biel	-12.8081
▁//	-12.8081
▁fly	-12.8081
▁965/16	-12.8082
▁vát	-12.8082
▁cook	-12.8082
▁ito	-12.8082
▁tré	-12.8083
▁blang	-12.8084
▁xào	-12.8084
▁459/3	-12.8084
▁165/49	-12.8084
▁747/20	-12.8085
▁361/19	-12.8085
stella	-12.8085
▁cinemas	-12.8086
▁nhùng	-12.8086
▁188/35	-12.8086
▁liem	-12.8089
vinh	-12.8089
▁rider	-12.8089
▁hản	-12.809
▁jang	-12.809
▁trùn	-12.809
▁thõn	-12.8091
action	-12.8092
▁thuô	-12.8092
▁kci	-12.8092
▁stown	-12.8093
box	-12.8094
050	-12.8094
▁táu	-12.8094
-0944	-12.8096
▁006	-12.8097
▁phế	-12.8098
▁124/45	-12.81
▁cnch	-12.8101
▁178/4	-12.8101
▁lưong	-12.8101
▁ocen	-12.8101
▁keng	-12.8102
▁nhớt	-12.8105
-065	-12.8105
▁pach	-12.8105
▁98/2	-12.8106
▁ghn	-12.8106
▁010	-12.8108
▁龙	-12.8108
▁7-9	-12.8109
▁15/83	-12.8111
▁hèn	-12.8112
▁arts	-12.8113
▁007	-12.8115
▁ອ	-12.8116
▁hoă	-12.8116
▁veggie	-12.8116
▁422/11	-12.8116
▁hera	-12.8116
▁sachi	-12.8117
▁mint	-12.8118
▁quen	-12.8118
entry	-12.8118
▁267/17	-12.8119
▁cach	-12.8119
▁49/56	-12.8121
▁96/38	-12.8122
▁mung	-12.8123
▁airports	-12.8123
▁fami	-12.8127
▁bnd	-12.8128
guy	-12.8129
▁54/53	-12.8129
▁ngox	-12.8131
▁nghèn	-12.8132
▁lagi	-12.8133
▁pax	-12.8133
▁53/49	-12.8134
889	-12.8134
▁deco	-12.8135
▁118/31	-12.8136
▁phích	-12.8139
▁ohan	-12.814
▁tục	-12.814
▁ວ	-12.8141
▁145/17/	-12.8143
▁suu	-12.8149
▁dive	-12.8149
▁khôn	-12.8152
▁167/7	-12.8155
▁83/21	-12.8158
ảng	-12.816
▁nina	-12.8161
▁baza	-12.8162
▁mett	-12.8163
nbf	-12.8164
▁61/44	-12.8165
▁tía	-12.8165
▁này	-12.8167
▁189/12/	-12.8168
▁tieng	-12.817
▁ném	-12.8176
▁tnt	-12.818
▁103/13	-12.8184
▁3158	-12.8193
▁ccn	-12.8193
▁1160	-12.82
.5,	-12.8202
▁10-12	-12.8206
▁lkp	-12.8208
corn	-12.8211
▁thuon	-12.8212
▁14-16	-12.8215
▁hj	-12.8222
▁mole	-12.8234
▁tạng	-12.8235
▁nhue	-12.8239
▁tàn	-12.8242
▁mol	-12.8243
▁93/8	-12.8245
▁luh	-12.825
▁80/28	-12.8251
▁mbi	-12.8257
▁69/19/	-12.8264
▁dưng	-12.8273
▁ila	-12.8277
▁39/29	-12.8281
▁11/26/2	-12.8281
▁95/8	-12.8283
war	-12.8284
▁tửu	-12.8288
0/65	-12.8295
▁jm	-12.8297
▁hla	-12.8307
▁note	-12.831
▁129/9	-12.8326
▁prem	-12.8336
▁luk	-12.8344
403	-12.835
▁part	-12.8362
▁2/45/	-12.8384
▁điệ	-12.8392
▁1988	-12.84
ker	-12.8402
wcs	-12.8407
▁003	-12.8408
▁farmer	-12.8412
▁ươ	-12.844
16-3	-12.8452
▁260/8	-12.8497
nora	-12.8516
430	-12.8548
-0394	-12.8551
▁dà	-12.8554
▁roòn	-12.8563
uss	-12.858
-0919	-12.8581
xim	-12.8598
▁but	-12.8602
18-3	-12.862
▁614/8	-12.8646
▁tiw	-12.8654
▁kok	-12.8664
-56	-12.8693
503	-12.8717
lus	-12.8736
▁navi	-12.8777
▁600/4/1	-12.8778
д	-12.8838
trol	-12.8849
huế	-12.8861
ire	-12.8922
▁465/1	-12.8941
756	-12.8968
rinh	-12.8979
yen	-12.8992
768	-12.901
slam	-12.902
8/89	-12.902
▁hă	-12.902
751	-12.9033
cons	-12.9052
329	-12.906
▁44/24/	-12.9066
▁kbt	-12.9067
370	-12.9084
▁bươ	-12.9107
▁dò	-12.9108
▁dru	-12.9111
▁pán	-12.9119
ette	-12.9132
▁mani	-12.9141
▁tops	-12.9164
▁xó	-12.9165
eau	-12.9169
003	-12.9234
ịnh	-12.9248
75/6	-12.9255
▁đầ	-12.9277
kha	-12.9284
▁cit	-12.9383
ssa	-12.9406
02-5	-12.943
▁chọ	-12.9492
▁nả	-12.9531
500	-12.9546
52/5	-12.9547
▁italia	-12.9549
▁thó	-12.9565
/35/2	-12.9566
ро	-12.9601
445	-12.9623
mini	-12.9625
cola	-12.963
ước	-12.9631
▁mú	-12.967
ách	-12.9671
龙	-12.9671
ជ	-12.9672
ស	-12.9673
ដ	-12.9674
fruit	-12.9674
ទ	-12.9674
phong	-12.9675
truc	-12.9675
xuan	-12.9675
tám	-12.9675
khánh	-12.9675
đình	-12.9675
bún	-12.9675
hanoi	-12.9676
center	-12.9676
điểm	-12.9676
vạn	-12.9678
camp	-12.9679
nhân	-12.9682
ship	-12.9684
xà	-12.9685
ngã	-12.9685
xô	-12.9687
28/39	-12.9687
▁vuê	-12.9693
tây	-12.9693
ứt	-12.9695
cách	-12.9696
ỵ	-12.9702
▁rư	-12.9703
sân	-12.9709
▁tiế	-12.9711
▁dessert	-12.9722
▁phồn	-12.9722
yang	-12.9723
▁mầ	-12.9723
▁vượn	-12.9724
ppy	-12.9726
я	-12.9727
▁centro	-12.9727
▁friend	-12.9727
chí	-12.9727
▁special	-12.9727
酒店	-12.9727
ຕ	-12.9727
边	-12.9727
스	-12.9727
▁mercedes	-12.9727
坡	-12.9727
scolor	-12.9727
ຜ	-12.9727
ໄ	-12.9727
▁121/39/47	-12.9727
▁250/60/55	-12.9727
▁414-420	-12.9727
▁92-94	-12.9727
▁accessories	-12.9727
▁alaska	-12.9727
▁architecture	-12.9727
▁bespoke	-12.9727
▁bingxue	-12.9727
▁breeze	-12.9727
▁bẩy	-12.9727
▁carillon	-12.9727
▁climbing	-12.9727
▁closet	-12.9727
▁condotel	-12.9727
▁coworking	-12.9727
▁crocs	-12.9727
▁cẫu	-12.9727
▁cắm	-12.9727
▁daekwang	-12.9727
▁enjoy	-12.9727
▁escape	-12.9727
▁forever	-12.9727
▁futerling	-12.9727
▁gdđt	-12.9727
▁genesis	-12.9727
▁german	-12.9727
▁giật	-12.9727
▁gratitude	-12.9727
▁grotto	-12.9727
▁gói	-12.9727
▁handmade	-12.9727
▁hochiminh	-12.9727
▁interior	-12.9727
▁isuzu	-12.9727
▁jysk	-12.9727
▁kangaroo	-12.9727
▁khớp	-12.9727
▁khủng	-12.9727
▁kiosk	-12.9727
▁krista	-12.9727
▁lumiere	-12.9727
▁manufacturing	-12.9727
▁meetaneed	-12.9727
▁middle	-12.9727
▁ministry	-12.9727
▁momizi	-12.9727
▁ngập	-12.9727
▁nlmt	-12.9727
▁nườc	-12.9727
▁olympia	-12.9727
▁peninsula	-12.9727
▁perfume	-12.9727
▁pilates	-12.9727
▁precinct	-12.9727
▁prosper	-12.9727
▁ratraco	-12.9727
▁renaissance	-12.9727
▁retail	-12.9727
▁richmond	-12.9727
▁robot	-12.9727
▁rocher	-12.9727
▁ruồi	-12.9727
▁safira	-12.9727
▁security	-12.9727
▁simple	-12.9727
▁social	-12.9727
▁sonadezi	-12.9727
▁spice	-12.9727
▁srepok	-12.9727
▁sroong	-12.9727
▁summit	-12.9727
▁sưhite	-12.9727
▁takashimaya	-12.9727
▁tourism	-12.9727
▁truồi	-12.9727
▁twitterbeans	-12.9727
▁venesia	-12.9727
▁visitor	-12.9727
▁vnpay	-12.9727
▁vắc	-12.9727
▁waxing	-12.9727
▁woojeon	-12.9727
▁đắng	-12.9727
▁đắp	-12.9727
▁đừờng	-12.9727
▁на	-12.9727
口	-12.9727
号观景台	-12.9727
条半	-12.9727
장	-12.9727
ä	-12.9727
”	-12.9727
▁422/14/20	-12.9727
▁bingsu	-12.9727
▁development	-12.9727
▁evnspc	-12.9727
▁ganesh	-12.9727
▁gemek	-12.9727
▁jaej	-12.9727
▁lameci	-12.9727
▁ngutê	-12.9727
▁phnô	-12.9727
▁ròm	-12.9727
▁rền	-12.9727
▁shabu	-12.9727
▁sừng	-12.9727
▁thegioi	-12.9727
▁triền	-12.9727
▁龙邦	-12.9727
▁105-107	-12.9727
▁akira	-12.9727
▁cõi	-12.9727
▁dorco	-12.9727
▁kwong	-12.9727
▁leather	-12.9727
▁noibai	-12.9727
▁solutions	-12.9727
▁thầm	-12.9727
▁vedan	-12.9727
▁245/2/12	-12.9727
▁85-87	-12.9727
▁85/40/1	-12.9727
▁pêng	-12.9727
▁udon	-12.9727
▁đùa	-12.9727
▁河口	-12.9727
▁1358/28	-12.9727
▁ວຍ	-12.9727
▁countryside	-12.9727
▁havana	-12.9727
▁krom	-12.9727
ная	-12.9727
▁hovj	-12.9727
▁york	-12.9727
▁half	-12.9727
▁ocenpark	-12.9727
▁alex	-12.9727
▁dreng	-12.9727
▁rve	-12.9727
▁52-54	-12.9727
▁hyatt	-12.9727
да	-12.9727
▁kqh	-12.9727
▁lagom	-12.9727
▁lemino	-12.9727
▁46/17/2	-12.9727
▁dtnn	-12.9727
▁cosy	-12.9727
▁143/74	-12.9727
▁ginza	-12.9727
▁idico	-12.9727
▁princeton	-12.9727
▁savico	-12.9727
▁43-45	-12.9727
▁cold	-12.9727
он	-12.9727
▁តស	-12.9727
▁40-42	-12.9727
▁cafè	-12.9727
▁indus	-12.9727
▁tokyolife	-12.9728
▁đvb	-12.9728
▁nhả	-12.9728
▁adam	-12.9728
▁glai	-12.9728
▁kdăm	-12.9728
▁bebh	-12.9728
▁bright	-12.9728
▁nguỵ	-12.9728
▁លង	-12.9728
▁tommy	-12.9728
▁xoăn	-12.9728
▁motorvina	-12.9728
▁grocery	-12.9728
▁រស	-12.9728
▁453/103	-12.9728
▁moment	-12.9728
▁knir	-12.9728
▁milktea	-12.9728
▁redsun	-12.9728
▁lớ	-12.9728
▁army	-12.9728
▁17/175	-12.9728
▁brick	-12.9728
-0985	-12.9728
▁503/54/40/	-12.9728
▁kangnam	-12.9728
▁261/15/80/1	-12.9728
▁kịch	-12.9728
▁giọt	-12.9728
▁noble	-12.9728
▁sevt	-12.9729
▁maple	-12.9729
▁karst	-12.9729
▁sunview	-12.9729
▁marine	-12.9729
▁wow	-12.9729
▁optic	-12.9729
▁seaview	-12.9729
▁archi	-12.9729
▁suôi	-12.9729
▁youth	-12.9729
▁iaring	-12.973
▁448/65	-12.973
▁mỵ	-12.973
▁titan	-12.973
▁jade	-12.973
-0986	-12.973
▁đụng	-12.973
▁645/51	-12.973
▁kyung	-12.973
▁854/47	-12.973
▁greenlab	-12.973
▁viẹt	-12.973
▁738/41	-12.973
▁373/152	-12.973
laocai	-12.973
▁hottel	-12.973
▁khứ	-12.973
▁254/98/	-12.973
▁choén	-12.9731
▁party	-12.9731
▁quéo	-12.9731
▁yaly	-12.9731
▁zara	-12.9731
▁604/35/	-12.9731
▁gateway	-12.9731
▁hhcn	-12.9731
▁207/103	-12.9731
▁rài	-12.9731
▁rình	-12.9731
▁614/66	-12.9731
▁dorm	-12.9732
▁nọii	-12.9732
-0984	-12.9732
▁mổ	-12.9732
▁kuin	-12.9732
▁thào	-12.9732
▁riva	-12.9732
▁480/31	-12.9732
▁tép	-12.9732
▁mỷ	-12.9732
▁cross	-12.9732
▁helo	-12.9732
▁neun	-12.9732
▁saigonres	-12.9732
▁rờ	-12.9733
▁niem	-12.9733
▁80/113	-12.9733
▁viking	-12.9734
▁đén	-12.9734
1-19	-12.9734
▁lạp	-12.9734
▁atđ	-12.9734
▁hugo	-12.9734
▁phườ	-12.9734
▁46-48	-12.9734
▁khốt	-12.9734
▁bmc	-12.9734
▁445/60	-12.9735
▁down	-12.9735
▁gút	-12.9735
▁hũ	-12.9735
▁trust	-12.9735
▁ihome	-12.9735
▁talk	-12.9735
▁208/8/3	-12.9735
▁cocktails	-12.9735
▁lính	-12.9736
▁nthh	-12.9736
▁doner	-12.9737
▁vali	-12.9738
▁trệt	-12.9738
▁đõ	-12.9739
2.08	-12.9739
▁ciel	-12.9739
▁gôi	-12.974
▁353/38	-12.9741
▁petroland	-12.9741
▁amor	-12.9741
▁swp	-12.9741
▁cấy	-12.9742
soft	-12.9742
▁nỉ	-12.9742
▁energy	-12.9743
▁mâymo	-12.9743
▁cwp	-12.9743
-0988	-12.9744
▁diểu	-12.9744
▁pó	-12.9745
▁suri	-12.9745
▁biều	-12.9746
▁chro	-12.9746
▁hero	-12.9746
▁222/33	-12.9746
▁pvol	-12.9746
▁sumi	-12.9747
▁rát	-12.9747
read	-12.9747
▁207/16/1	-12.9747
▁koto	-12.9747
▁trát	-12.9748
▁dhl	-12.9748
▁cheng	-12.9749
▁chôm	-12.9749
▁tickets	-12.9749
▁321/21	-12.9749
▁cấ	-12.975
▁hảng	-12.975
▁xoan	-12.9752
▁truck	-12.9753
▁boba	-12.9754
▁15.9	-12.9754
▁parkcity	-12.9754
▁msf	-12.9754
▁nú	-12.9754
▁nhúc	-12.9754
▁huang	-12.9754
▁nbk	-12.9755
▁132/42/	-12.9755
▁sọc	-12.9755
▁mimi	-12.9756
▁diep	-12.9756
▁gioi	-12.9758
▁soya	-12.9759
-078	-12.976
▁trou	-12.976
▁308/16	-12.976
▁sake	-12.9761
oeng	-12.9762
▁lines	-12.9762
▁95/81	-12.9763
▁idc	-12.9763
▁ttsa	-12.9764
▁pách	-12.9764
▁tous	-12.9765
▁burgers	-12.9765
▁22-24	-12.9766
▁giong	-12.9768
▁bọc	-12.9769
▁cúng	-12.977
▁ພ	-12.9774
▁sút	-12.9774
▁gaden	-12.9774
▁bề	-12.9775
▁davi	-12.9775
▁160/34	-12.9777
▁trúng	-12.9777
са	-12.9778
▁hoya	-12.9779
▁261/15/84/	-12.978
▁cúi	-12.9781
▁dồng	-12.9782
▁133/32	-12.9783
6/74	-12.9784
▁phác	-12.9784
▁23/72	-12.9786
▁quyê	-12.9787
▁dôn	-12.9787
▁tdh	-12.9788
51/8	-12.9791
▁thôm	-12.9791
▁79/51	-12.9795
▁140/30	-12.9796
▁bõ	-12.9796
▁vay	-12.9797
▁12/87	-12.9797
▁18-20	-12.9798
▁truy	-12.9798
▁133/26	-12.9799
▁50/66	-12.9799
▁melia	-12.9799
▁159/9	-12.98
▁1034/2	-12.9802
▁mdr	-12.9802
▁nguyêt	-12.9803
▁baber	-12.9804
▁107/32	-12.9806
▁77/38	-12.9811
▁thoing	-12.9812
▁stu	-12.9814
sung	-12.9816
▁parc	-12.9817
▁nghí	-12.9819
▁còng	-12.9819
▁lx	-12.9822
▁misa	-12.9829
9/74	-12.983
▁tuq	-12.9831
▁andy	-12.9832
▁118/13	-12.9836
▁buk	-12.9836
▁187/7	-12.9846
▁gv	-12.9849
▁kiêt	-12.9855
▁dist	-12.9855
▁20-10	-12.9857
▁gdt	-12.9859
▁mơn	-12.986
▁hiêu	-12.9861
ataco	-12.9864
▁1600	-12.9873
▁vtt	-12.9876
▁hich	-12.9893
▁64-6	-12.9893
▁107/6/	-12.9893
win	-12.9897
▁dct	-12.9912
▁cofee	-12.994
▁2889	-12.9948
hạ	-12.9949
▁roy	-12.9952
▁alma	-12.9957
hill	-12.9964
▁visi	-12.9977
52/4	-12.998
ids	-12.998
▁rum	-12.9984
▁vìna	-12.9986
ofi	-12.9987
ít	-12.9993
pro	-13.0016
▁80/40/	-13.0031
▁triêu	-13.0041
tran	-13.0053
▁hươ	-13.0055
iot	-13.0096
▁rôm	-13.0152
▁stor	-13.0152
tiên	-13.0183
07-1	-13.019
thố	-13.0191
▁maxi	-13.0258
▁siê	-13.0268
live	-13.0286
ẹt	-13.0286
uonhw	-13.0303
▁loco	-13.0355
▁158/9	-13.0391
▁thoai	-13.0399
hanel	-13.0437
▁hiu	-13.0441
-0974	-13.0444
háp	-13.0451
705	-13.0488
▁chạ	-13.0492
▁gard	-13.05
▁hòi	-13.0536
isco	-13.0552
▁aeonma	-13.0595
phuo	-13.0608
▁cape	-13.0649
óp	-13.0667
hoang	-13.0675
▁kiế	-13.0682
де	-13.0703
iva	-13.0713
ос	-13.0727
ານ	-13.0825
07-2	-13.087
4/67	-13.0936
▁tỉ	-13.0949
▁134/3/	-13.098
▁287/1	-13.1009
▁mel	-13.1022
▁roi	-13.1042
▁quơ	-13.1079
▁đì	-13.1222
hem	-13.1244
ray	-13.1245
ãy	-13.1291
▁camel	-13.1294
hoạ	-13.1354
rex	-13.1363
▁trấ	-13.1459
vent	-13.1461
▁24/3/	-13.1463
eck	-13.1504
2-17	-13.1532
hwa	-13.1564
èo	-13.1581
ines	-13.1623
▁buon	-13.163
iếng	-13.1632
hiệp	-13.1664
▁board	-13.1664
ພ	-13.1671
គ	-13.1673
group	-13.1674
អ	-13.1674
យ	-13.1674
វ	-13.1674
gdtx	-13.1675
vuon	-13.1675
diễm	-13.1675
office	-13.1675
quỳnh	-13.1675
lâm	-13.1675
trại	-13.1676
sóc	-13.1676
hotel	-13.1676
thọ	-13.1677
villa	-13.1678
nguyền	-13.1678
club	-13.1679
phê	-13.1679
trans	-13.168
fish	-13.1681
pham	-13.1688
▁ride	-13.169
hue	-13.1695
năm	-13.1698
kinh	-13.1699
▁nướ	-13.1706
thai	-13.1706
▁helio	-13.1722
▁trầ	-13.1722
▁trốn	-13.1722
▁victor	-13.1723
▁khươ	-13.1725
▁861/72	-13.1725
▁goerte	-13.1726
ñ	-13.1727
▁德天	-13.1727
布	-13.1727
▁second	-13.1727
国	-13.1727
י	-13.1727
국	-13.1727
ה	-13.1727
า	-13.1727
台	-13.1727
▁grass	-13.1727
▁ດາກ	-13.1727
区	-13.1727
-1200000390	-13.1727
cultural	-13.1727
solution	-13.1727
vinscholl	-13.1727
ū	-13.1727
ные	-13.1727
ный	-13.1727
ឃ	-13.1727
▁1041/101	-13.1727
▁145/42/7/6	-13.1727
▁1806/127	-13.1727
▁187-189	-13.1727
▁2385/62/9	-13.1727
▁8/11/186	-13.1727
▁acoustic	-13.1727
▁ahamove	-13.1727
▁airways	-13.1727
▁ajinomoto	-13.1727
▁amsterdam	-13.1727
▁apparel	-13.1727
▁atlas	-13.1727
▁authority	-13.1727
▁beefsteak	-13.1727
▁bolero	-13.1727
▁bottom	-13.1727
▁boundary	-13.1727
▁buóu	-13.1727
▁buồn	-13.1727
▁carnaby	-13.1727
▁chắc	-13.1727
▁chừng	-13.1727
▁comatce	-13.1727
▁committee	-13.1727
▁courtyard	-13.1727
▁crepe	-13.1727
▁currency	-13.1727
▁curry	-13.1727
▁dolce	-13.1727
▁driving	-13.1727
▁duẫn	-13.1727
▁economic	-13.1727
▁effoc	-13.1727
▁elementary	-13.1727
▁events	-13.1727
▁export	-13.1727
▁fatima	-13.1727
▁fulian	-13.1727
▁galleria	-13.1727
▁ghép	-13.1727
▁giordano	-13.1727
▁giằng	-13.1727
▁gươl	-13.1727
▁gật	-13.1727
▁hacinco	-13.1727
▁handicraft	-13.1727
▁hanwha	-13.1727
▁harbour	-13.1727
▁healing	-13.1727
▁heineken	-13.1727
▁hillstate	-13.1727
▁himalaya	-13.1727
▁homemade	-13.1727
▁hôpital	-13.1727
▁indoor	-13.1727
▁jamila	-13.1727
▁kafé	-13.1727
▁kusumi	-13.1727
▁lancaster	-13.1727
▁laroma	-13.1727
▁lemongrass	-13.1727
▁level	-13.1727
▁lingyi	-13.1727
▁lầy	-13.1727
▁madagui	-13.1727
▁massghe	-13.1727
▁metropole	-13.1727
▁mikazuki	-13.1727
▁milestone	-13.1727
▁moblie	-13.1727
▁modern	-13.1727
▁movenpick	-13.1727
▁muỗi	-13.1727
▁mövenpick	-13.1727
▁mẩy	-13.1727
▁mịch	-13.1727
▁nghãi	-13.1727
▁ngiêp	-13.1727
▁ninomax	-13.1727
▁nuóc	-13.1727
▁nuôl	-13.1727
▁oakwood	-13.1727
▁olivia	-13.1727
▁options	-13.1727
▁orchard	-13.1727
▁organik	-13.1727
▁outlet	-13.1727
▁paintings	-13.1727
▁pegasuite	-13.1727
▁phăng	-13.1727
▁piaggio	-13.1727
▁pkđk	-13.1727
▁polaris	-13.1727
▁poseidon	-13.1727
▁prudential	-13.1727
▁python	-13.1727
▁quặng	-13.1727
▁rabbit	-13.1727
▁research	-13.1727
▁resettlement	-13.1727
▁restoran	-13.1727
▁reverie	-13.1727
▁rập	-13.1727
▁rỗi	-13.1727
▁rỗng	-13.1727
▁sanctuary	-13.1727
▁serene	-13.1727
▁serenity	-13.1727
▁sisters	-13.1727
▁sophia	-13.1727
▁sophie	-13.1727
▁speed	-13.1727
▁starlake	-13.1727
▁sukiya	-13.1727
▁sunflower	-13.1727
▁taisei	-13.1727
▁tamarind	-13.1727
▁thẫm	-13.1727
▁tiktok	-13.1727
▁toronto	-13.1727
▁ttytcaoloc	-13.1727
▁tặp	-13.1727
▁usamua	-13.1727
▁valencia	-13.1727
▁viwaseen	-13.1727
▁voeenj	-13.1727
▁vãi	-13.1727
▁vặn	-13.1727
▁vững	-13.1727
▁waffle	-13.1727
▁warning	-13.1727
▁waverly	-13.1727
▁wistron	-13.1727
▁woodstock	-13.1727
▁wừu	-13.1727
▁yakiniku	-13.1727
▁ưuaanj	-13.1727
▁中国	-13.1727
▁兰马线	-13.1727
▁峒中	-13.1727
▁秀河线	-13.1727
▁红河	-13.1727
▁😁220	-13.1727
中学	-13.1727
乡	-13.1727
二	-13.1727
人	-13.1727
场	-13.1727
头	-13.1727
小学	-13.1727
岛	-13.1727
林	-13.1727
老	-13.1727
脚	-13.1727
街	-13.1727
대	-13.1727
▁354/137	-13.1727
▁422/14/4	-13.1727
▁berry	-13.1727
▁bửng	-13.1727
▁compal	-13.1727
▁cuôr	-13.1727
▁dambri	-13.1727
▁ecopac	-13.1727
▁fuyu	-13.1727
▁gót	-13.1727
▁haven	-13.1727
▁khém	-13.1727
▁machine	-13.1727
▁marou	-13.1727
▁nissan	-13.1727
▁princess	-13.1727
▁screc	-13.1727
▁shisha	-13.1727
▁tgasi	-13.1727
▁tuôr	-13.1727
▁video	-13.1727
▁viettien	-13.1727
▁vẹm	-13.1727
▁ພຽງ	-13.1727
나	-13.1727
10.03	-13.1727
apharco	-13.1727
xqj	-13.1727
▁140-142	-13.1727
▁89/1/59	-13.1727
▁coingr	-13.1727
▁csxh	-13.1727
▁duydưỡng	-13.1727
▁greo	-13.1727
▁kẽm	-13.1727
▁nọn	-13.1727
▁nới	-13.1727
▁phanxico	-13.1727
▁păh	-13.1727
▁shopping	-13.1727
▁thộn	-13.1727
▁vaqn	-13.1727
▁vcci	-13.1727
▁độicấn	-13.1727
地	-13.1727
▁cscđ	-13.1727
▁hingj	-13.1727
▁idmc	-13.1727
▁nếu	-13.1727
▁phuóc	-13.1727
▁winston	-13.1727
-09780	-13.1727
▁decal	-13.1727
▁ecoxe	-13.1727
▁nobel	-13.1727
▁rieng	-13.1727
▁sadora	-13.1727
▁srê	-13.1727
▁camellia	-13.1727
▁nâng	-13.1727
▁yếu	-13.1727
▁173/134	-13.1727
▁2977/11	-13.1727
▁55-57	-13.1727
▁mướt	-13.1727
▁pứa	-13.1727
▁thirteen	-13.1727
▁48/28/4	-13.1727
▁droh	-13.1727
▁nokia	-13.1727
▁novia	-13.1727
▁114-116	-13.1727
▁87-89	-13.1727
▁graf	-13.1727
▁stand	-13.1727
▁sàigon	-13.1727
1.05	-13.1727
▁1078/17	-13.1727
▁74..	-13.1727
▁everich	-13.1727
▁lavie	-13.1727
where	-13.1727
▁118/127	-13.1727
ເກ	-13.1727
▁motobike	-13.1727
▁access	-13.1727
▁dark	-13.1727
▁nứa	-13.1727
▁stellar	-13.1727
invest	-13.1727
▁63-65	-13.1727
▁ecco	-13.1727
▁electricity	-13.1727
▁ចម	-13.1727
▁bqp	-13.1727
▁apax	-13.1727
▁turn	-13.1727
▁eaut	-13.1727
▁jeanne	-13.1727
▁rise	-13.1727
▁ptsc	-13.1727
▁dmz	-13.1727
▁dgoc	-13.1727
▁vitcom	-13.1727
2.18	-13.1728
▁ងត	-13.1728
▁innover	-13.1728
▁42/133	-13.1728
▁មល	-13.1728
▁9-101	-13.1728
▁beenhj	-13.1728
▁topzone	-13.1728
▁walk	-13.1728
▁disk	-13.1728
▁exit	-13.1728
▁រប	-13.1728
▁epic	-13.1728
▁dliê	-13.1728
▁cheers	-13.1728
▁670/87	-13.1728
▁22/322	-13.1728
▁annamoi	-13.1728
▁truowngf	-13.1728
▁coral	-13.1728
▁accor	-13.1728
▁29-19	-13.1728
▁clock	-13.1728
▁sctv	-13.1728
▁artist	-13.1728
▁infinity	-13.1728
▁154/136	-13.1728
▁48/91	-13.1728
▁wings	-13.1728
▁muji	-13.1728
▁steakhouse	-13.1728
▁រព	-13.1728
▁hanaka	-13.1729
▁flat	-13.1729
▁faifoo	-13.1729
▁homefarm	-13.1729
▁patrol	-13.1729
▁745/62	-13.1729
▁petec	-13.1729
▁yumi	-13.1729
▁566/72	-13.1729
▁australian	-13.1729
▁mother	-13.1729
▁saphi	-13.1729
▁lovera	-13.1729
▁lình	-13.1729
▁hnoi	-13.1729
owngf	-13.1729
▁jeong	-13.1729
▁ngoạn	-13.173
▁liểu	-13.173
▁bonita	-13.173
▁793/54/1	-13.173
▁vesta	-13.173
▁bags	-13.173
▁booking	-13.173
▁xốp	-13.173
▁greek	-13.173
▁petit	-13.173
▁322/95	-13.173
▁fortech	-13.173
▁candles	-13.173
▁marker	-13.173
▁phơi	-13.173
▁lần	-13.173
▁aidi	-13.173
▁diner	-13.173
▁ngơi	-13.173
-95	-13.173
▁ghiền	-13.1731
▁656/74	-13.1731
▁mức	-13.1731
▁1027/53	-13.1731
▁paint	-13.1731
▁well	-13.1731
▁zest	-13.1731
▁hitc	-13.1731
▁dàu	-13.1731
▁vinasun	-13.1731
▁lỡ	-13.1731
▁runam	-13.1731
▁phất	-13.1731
▁pont	-13.1731
▁chọi	-13.1731
▁omar	-13.1731
▁niết	-13.1731
▁422/14/1	-13.1731
-0382	-13.1732
▁danel	-13.1732
▁khoách	-13.1732
▁doàn	-13.1732
▁vần	-13.1732
▁moda	-13.1732
▁tién	-13.1732
▁aval	-13.1732
▁614/68	-13.1732
▁phừ	-13.1732
▁luồng	-13.1732
▁nhẹ	-13.1732
▁today	-13.1732
▁hitech	-13.1732
▁70-72	-13.1732
▁phườn	-13.1733
-0979	-13.1733
▁khăn	-13.1733
▁helios	-13.1733
▁carol	-13.1733
▁rái	-13.1733
▁171/105	-13.1733
▁chình	-13.1733
▁ngji	-13.1733
▁đét	-13.1733
-0982	-13.1733
▁bâu	-13.1733
▁trạo	-13.1733
▁desserts	-13.1734
▁dúng	-13.1734
▁greenlife	-13.1734
▁paul	-13.1735
▁575/47	-13.1735
▁115/100	-13.1735
silverstone	-13.1735
▁cruises	-13.1735
▁váy	-13.1735
▁hring	-13.1735
▁vibes	-13.1735
▁gộ	-13.1736
ອນ	-13.1736
▁adventures	-13.1736
▁twins	-13.1736
▁nhái	-13.1736
▁csth	-13.1736
▁nái	-13.1737
▁parkview	-13.1737
▁kual	-13.1737
▁tbs	-13.1737
▁(170	-13.1737
▁trươi	-13.1738
▁cuân	-13.1738
▁539/19/9	-13.1738
33+	-13.1738
▁pier	-13.1738
▁logis	-13.1739
▁365/36	-13.1739
▁cước	-13.1739
▁titi	-13.1739
▁vela	-13.1739
▁khinh	-13.174
-0963	-13.174
▁biết	-13.174
▁zeit	-13.174
▁434/34/	-13.1741
▁xoai	-13.1741
▁vươt	-13.1741
▁amore	-13.1741
▁meko	-13.1742
▁kring	-13.1742
▁vjm	-13.1742
▁539/2/	-13.1742
▁gpp	-13.1742
▁489/24	-13.1743
▁etown	-13.1744
▁đọng	-13.1744
▁két	-13.1744
▁6-7	-13.1744
▁vồi	-13.1745
▁rớt	-13.1745
▁uri	-13.1745
▁lơn	-13.1746
▁lynn	-13.1746
▁krang	-13.1746
gialai	-13.1746
▁rome	-13.1746
▁486/11	-13.1747
▁pear	-13.1747
▁tọt	-13.1747
▁272/45/	-13.1747
▁tóp	-13.1747
▁prong	-13.1747
▁207/44/	-13.1747
▁chef	-13.1748
▁hợ	-13.1748
▁cỏing	-13.1748
▁374/25	-13.1749
▁bỏng	-13.175
▁eatte	-13.175
▁vietel	-13.175
▁nám	-13.1751
▁nghiệ	-13.1751
▁26000,	-13.1751
▁symp	-13.1751
▁173/24/	-13.1752
▁souvenirs	-13.1753
▁drang	-13.1756
▁uts	-13.1757
▁521/21	-13.1757
▁vòi	-13.1757
▁129/68/	-13.1759
▁toyo	-13.1759
▁xuong	-13.176
▁đốm	-13.176
▁229/64/	-13.1761
▁vuot	-13.1761
▁tire	-13.1761
▁163/34/	-13.1762
▁duòng	-13.1762
▁căm	-13.1763
▁pega	-13.1763
▁đsa	-13.1765
▁273/29	-13.1765
▁267/6/	-13.1767
1-05	-13.1767
▁meal	-13.1767
▁49/69	-13.1768
▁goong	-13.1769
▁triên	-13.1769
▁some	-13.1769
▁219/27	-13.1769
▁thuyen	-13.1769
▁luon	-13.177
▁20-21	-13.177
▁tole	-13.1772
▁đứt	-13.1772
▁kenh	-13.1772
▁shang	-13.1773
▁318/19	-13.1774
▁fê	-13.1774
▁jing	-13.1774
ượt	-13.1777
person	-13.1785
▁kty	-13.1786
▁teng	-13.1806
▁571/1	-13.1806
▁102/31/	-13.181
▁mươ	-13.181
▁82/27/	-13.1815
-1200001032	-13.1823
nnie	-13.1824
▁46/28/	-13.1835
▁41/21/	-13.1846
gram	-13.1873
▁trươn	-13.1908
nhat	-13.191
▁joli	-13.1927
▁11/26/1	-13.1929
2/8/1	-13.1947
ль	-13.1953
vân	-13.1977
▁đọi	-13.1998
7/125	-13.2008
▁hiang	-13.2013
bvis	-13.2043
▁make	-13.2044
▁sci	-13.2048
fas	-13.2053
oòng	-13.2083
cantho	-13.2087
ປາ	-13.2178
ສາ	-13.2189
▁vỉe	-13.2239
05-1	-13.2279
▁pou	-13.2286
maker	-13.2307
thủ	-13.2369
ỉn	-13.2398
-0348	-13.2424
9-02	-13.2425
▁gọ	-13.2427
02-4	-13.2462
track	-13.2468
11-11	-13.2471
sky	-13.2476
espa	-13.2508
▁145/20/1	-13.2512
▁gel	-13.2559
wu	-13.2615
▁600/4/2	-13.2645
03-27	-13.273
▁466/8	-13.2767
rain	-13.2834
ày	-13.3017
71/12	-13.3063
▁208/18/3	-13.3092
ivo	-13.3192
▁134/3/1	-13.3211
pis	-13.3221
16/39	-13.324
▁chán	-13.3284
▁fuk	-13.3294
▁558/5	-13.3319
ри	-13.3393
287	-13.3436
9-9	-13.3527
based	-13.3576
ປ	-13.363
pani	-13.3642
▁kidz	-13.3654
▁xl	-13.3655
gác	-13.3678
9-11	-13.3682
09-7	-13.3747
▁11/0	-13.3761
72/25	-13.3788
lung	-13.3865
ал	-13.3903
▁482/5	-13.3907
ouch	-13.3937
ь	-13.3944
venue	-13.3947
hachi	-13.3962
▁herman	-13.403
waco	-13.4044
06-2	-13.4104
hách	-13.4125
▁638/4	-13.4138
▁417/4	-13.4141
travel	-13.4169
▁កច	-13.417
thõn	-13.4171
马	-13.4172
ອງ	-13.4172
ប	-13.4173
field	-13.4174
valley	-13.4175
sushi	-13.4175
mũi	-13.4175
câu	-13.4175
vinhomes	-13.4175
dũng	-13.4175
cụm	-13.4175
tóc	-13.4175
huỳnh	-13.4175
quán	-13.4175
sáu	-13.4175
nội	-13.4175
cột	-13.4175
bãi	-13.4175
auto	-13.4175
thuý	-13.4176
cake	-13.4176
gym	-13.4176
▁208/18/5	-13.4176
phở	-13.4176
bean	-13.4177
thiên	-13.4177
thể	-13.4178
place	-13.4179
vườn	-13.4179
tiến	-13.418
kichi	-13.418
▁botanic	-13.4187
vegan	-13.4195
▁208/8/	-13.4201
▁vinci	-13.4214
▁phứ	-13.4216
▁shoe	-13.4217
▁水口	-13.4218
408/	-13.4218
▁diamon	-13.4219
▁gree	-13.4221
▁buffe	-13.4222
▁đặn	-13.4222
▁huý	-13.4222
▁logistic	-13.4222
▁khố	-13.4223
▁xuyê	-13.4225
▁liễ	-13.4226
▁xố	-13.4226
plex	-13.4226
▁roast	-13.4226
▁organ	-13.4227
瀑	-13.4227
▁country	-13.4227
▁future	-13.4227
ф	-13.4227
厂	-13.4227
西	-13.4227
가	-13.4227
ד	-13.4227
▁10°43	-13.4227
牛	-13.4227
ໃ	-13.4227
▁jamiul	-13.4227
▁matsuki	-13.4227
12-13-14-15	-13.4227
chocolate	-13.4227
ground	-13.4227
jewellery	-13.4227
meggitt	-13.4227
nghuyen	-13.4227
resident	-13.4227
▁118-120	-13.4227
▁146/59/18	-13.4227
▁174-176	-13.4227
▁19/183-19	-13.4227
▁222-224	-13.4227
▁235-237	-13.4227
▁242-244	-13.4227
▁261/15/78/5	-13.4227
▁266-268	-13.4227
▁268/21/55	-13.4227
▁32/48/23/3	-13.4227
▁322/76/18	-13.4227
▁358/55/20	-13.4227
▁637/10/33	-13.4227
▁648/85/3	-13.4227
▁688/57/129	-13.4227
▁71-73	-13.4227
▁abandoned	-13.4227
▁airbnb	-13.4227
▁alpine	-13.4227
▁angiêri	-13.4227
▁animal	-13.4227
▁apatit	-13.4227
▁artisan	-13.4227
▁ascentia	-13.4227
▁barbecue	-13.4227
▁beginning	-13.4227
▁berriver	-13.4227
▁bertrand	-13.4227
▁bikini	-13.4227
▁bilingual	-13.4227
▁bornga	-13.4227
▁briêng	-13.4227
▁bubble	-13.4227
▁bđvhx	-13.4227
▁bẳng	-13.4227
▁bẹnhvien	-13.4227
▁canopy	-13.4227
▁caravelle	-13.4227
▁casumina	-13.4227
▁cathedral	-13.4227
▁cbcnv	-13.4227
▁celesta	-13.4227
▁ceramic	-13.4227
▁chemical	-13.4227
▁cholimex	-13.4227
▁chậm	-13.4227
▁cinestar	-13.4227
▁citiesto	-13.4227
▁cleopatra	-13.4227
▁colette	-13.4227
▁commanding	-13.4227
▁conifer	-13.4227
▁convention	-13.4227
▁converse	-13.4227
▁correct	-13.4227
▁couture	-13.4227
▁creative	-13.4227
▁cresyn	-13.4227
▁crocodile	-13.4227
▁custom	-13.4227
▁cuội	-13.4227
▁daemyung	-13.4227
▁daesang	-13.4227
▁daiichi	-13.4227
▁delights	-13.4227
▁dendro	-13.4227
▁dentist	-13.4227
▁deutsches	-13.4227
▁dinner	-13.4227
▁dlieya	-13.4227
▁drawing	-13.4227
▁drift	-13.4227
▁elegance	-13.4227
▁enterprise	-13.4227
▁esuhai	-13.4227
▁everything	-13.4227
▁excellen	-13.4227
▁exhibition	-13.4227
▁fairy	-13.4227
▁fiesta	-13.4227
▁florence	-13.4227
▁forexco	-13.4227
▁friday	-13.4227
▁furni	-13.4227
▁gelacy	-13.4227
▁giêsu	-13.4227
▁giởi	-13.4227
▁glitter	-13.4227
▁gloria	-13.4227
▁goldseason	-13.4227
▁grepark	-13.4227
▁guanyin	-13.4227
▁guardian	-13.4227
▁hancorp	-13.4227
▁handiresco	-13.4227
▁hanosimex	-13.4227
▁hanoï	-13.4227
▁hansol	-13.4227
▁harbor	-13.4227
▁hotdog	-13.4227
▁hứu	-13.4227
▁idecaf	-13.4227
▁immigration	-13.4227
▁internal	-13.4227
▁isaac	-13.4227
▁ivory	-13.4227
▁jaguar	-13.4227
▁jazz	-13.4227
▁jesus	-13.4227
▁joffre	-13.4227
▁jojo	-13.4227
▁jours	-13.4227
▁juanda	-13.4227
▁kampong	-13.4227
▁kelly	-13.4227
▁kizuna	-13.4227
▁kroong	-13.4227
▁krái	-13.4227
▁kuốp	-13.4227
▁kymdan	-13.4227
▁kyoei	-13.4227
▁language	-13.4227
▁leonardo	-13.4227
▁liquid	-13.4227
▁lycée	-13.4227
▁lếch	-13.4227
▁malibu	-13.4227
▁marugame	-13.4227
▁maréchal	-13.4227
▁massae	-13.4227
▁mayfair	-13.4227
▁mermaid	-13.4227
▁mushroom	-13.4227
▁mói	-13.4227
▁mắn	-13.4227
▁naganuma	-13.4227
▁nazareth	-13.4227
▁nexus	-13.4227
▁ngườm	-13.4227
▁ngồi	-13.4227
▁nhhnmfsaafhhhb	-13.4227
▁nhắn	-13.4227
▁nikko	-13.4227
▁nissei	-13.4227
▁norfolk	-13.4227
▁okkio	-13.4227
▁overnight	-13.4227
▁oyster	-13.4227
▁paddy	-13.4227
▁photobooth	-13.4227
▁phầy	-13.4227
▁piercing	-13.4227
▁pillar	-13.4227
▁pnđt	-13.4227
▁policity	-13.4227
▁polymer	-13.4227
▁porsche	-13.4227
▁privia	-13.4227
▁prăng	-13.4227
▁quẫn	-13.4227
▁reachatuasnaram	-13.4227
▁representative	-13.4227
▁resturant	-13.4227
▁retro	-13.4227
▁rostaing	-13.4227
▁roxie	-13.4227
▁russell	-13.4227
▁rustic	-13.4227
▁rãnh	-13.4227
▁santaclara	-13.4227
▁shrine	-13.4227
▁siberian	-13.4227
▁sourdough	-13.4227
▁steame	-13.4227
▁steps	-13.4227
▁suspension	-13.4227
▁swanlake	-13.4227
▁swensen	-13.4227
▁swim	-13.4227
▁swinburne	-13.4227
▁system	-13.4227
▁sđach	-13.4227
▁sẵn	-13.4227
▁tabalo	-13.4227
▁taekwang	-13.4227
▁tartine	-13.4227
▁teddy	-13.4227
▁textile	-13.4227
▁tgdd	-13.4227
▁thanhmaihsk	-13.4227
▁through	-13.4227
▁thẳng	-13.4227
▁thặng	-13.4227
▁tiffany	-13.4227
▁traditional	-13.4227
▁trwowngf	-13.4227
▁underwater	-13.4227
▁unilever	-13.4227
▁vbsp	-13.4227
▁vicente	-13.4227
▁vietsopetro	-13.4227
▁vinafoam	-13.4227
▁vãng	-13.4227
▁website	-13.4227
▁welco	-13.4227
▁westphalen	-13.4227
▁woori	-13.4227
▁wrap	-13.4227
▁xụân	-13.4227
▁yakult	-13.4227
▁yantiansien	-13.4227
▁ðỗ	-13.4227
▁đuoqngf	-13.4227
▁кафе	-13.4227
▁ກສາລາ	-13.4227
▁ເຊ	-13.4227
▁ໂມ	-13.4227
▁ấunpak	-13.4227
▁乐村	-13.4227
▁南利河	-13.4227
▁南友高速	-13.4227
▁吕平	-13.4227
▁喀东线	-13.4227
▁壬庄	-13.4227
▁沿河大道	-13.4227
▁黑水河	-13.4227
▁베트남	-13.4227
ー	-13.4227
五	-13.4227
县	-13.4227
楼	-13.4227
界	-13.4227
罗	-13.4227
美	-13.4227
行	-13.4227
道	-13.4227
阳	-13.4227
隆	-13.4227
馆	-13.4227
마	-13.4227
비	-13.4227
이	-13.4227
집	-13.4227
?	-13.4227
louvre	-13.4227
э	-13.4227
▁0500/00	-13.4227
▁1166/12/1/	-13.4227
▁141-143	-13.4227
▁2221/1/2/1	-13.4227
▁239-241	-13.4227
▁276/3/45	-13.4227
▁566/187	-13.4227
▁77/44/42	-13.4227
▁antonia	-13.4227
▁bottle	-13.4227
▁casio	-13.4227
▁clever	-13.4227
▁cmmb	-13.4227
▁former	-13.4227
▁haeju	-13.4227
▁hamaden	-13.4227
▁jabil	-13.4227
▁kiwi	-13.4227
▁kiềm	-13.4227
▁ksơr	-13.4227
▁laboong	-13.4227
▁luộc	-13.4227
▁mòi	-13.4227
▁pró	-13.4227
▁relic	-13.4227
▁rộp	-13.4227
▁serena	-13.4227
▁shark	-13.4227
▁snacks	-13.4227
▁sparks	-13.4227
▁trươndg	-13.4227
▁vfis	-13.4227
▁yida	-13.4227
▁ຊຽງ	-13.4227
▁越南	-13.4227
宝	-13.4227
念	-13.4227
流	-13.4227
火	-13.4227
达	-13.4227
라	-13.4227
/39/734	-13.4227
▁1041/122	-13.4227
▁106-108	-13.4227
▁116-118	-13.4227
▁193/17/25	-13.4227
▁244/10/8	-13.4227
▁anhdưỡng	-13.4227
▁chép	-13.4227
▁cuvj	-13.4227
▁daikin	-13.4227
▁italy	-13.4227
▁pkdk	-13.4227
▁păk	-13.4227
▁vikki	-13.4227
▁vnxk	-13.4227
▁yadea	-13.4227
▁zizi	-13.4227
▁đỉa	-13.4227
▁đực	-13.4227
▁па	-13.4227
境	-13.4227
licious	-13.4227
▁121-123	-13.4227
▁93/9/31	-13.4227
▁brand	-13.4227
▁diền	-13.4227
▁dẹp	-13.4227
▁film	-13.4227
▁kẹm	-13.4227
▁lunch	-13.4227
▁nẻo	-13.4227
▁rộc	-13.4227
▁sếu	-13.4227
▁sụt	-13.4227
▁ulis	-13.4227
▁zuli	-13.4227
▁1264/55	-13.4227
▁193/220/	-13.4227
▁84/31/8	-13.4227
▁barista	-13.4227
▁blind	-13.4227
▁chloe	-13.4227
▁friendship	-13.4227
▁srey	-13.4227
▁tresor	-13.4227
▁vinuniversity	-13.4227
▁បន	-13.4227
▁62/29/14	-13.4227
▁bodhi	-13.4227
▁bonbon	-13.4227
▁cochin	-13.4227
▁hìa	-13.4227
▁science	-13.4227
▁triple	-13.4227
▁tăk	-13.4227
▁yôp	-13.4227
▁пи	-13.4227
▁125/12/3	-13.4227
▁dăk	-13.4227
▁futurelink	-13.4227
▁woody	-13.4227
▁ອຍ	-13.4227
▁110/18/16	-13.4227
▁chqs	-13.4227
▁racing	-13.4227
▁rươi	-13.4227
▁sarina	-13.4227
▁strawberry	-13.4227
eranda	-13.4227
ор	-13.4227
▁125/227	-13.4227
▁nhiêt	-13.4227
▁toilet	-13.4227
▁tăh	-13.4227
百	-13.4227
▁200/7/1	-13.4227
▁49/14/20	-13.4227
▁69-71	-13.4227
▁91-93	-13.4227
▁trademark	-13.4227
▁107/7/5	-13.4227
▁205/174	-13.4227
▁yhct	-13.4227
▁hanoibus	-13.4227
▁tnmt	-13.4227
▁vitalink	-13.4227
▁xiaomi	-13.4227
▁58-60	-13.4227
▁mdhar	-13.4227
▁dakao	-13.4227
▁oscar	-13.4227
▁valentino	-13.4227
▁2252/22	-13.4227
▁5/36/25	-13.4227
ня	-13.4227
тор	-13.4227
▁1247/19	-13.4227
▁75-77	-13.4227
▁evergreen	-13.4227
▁hamasin	-13.4227
▁poke	-13.4227
▁rbol	-13.4227
▁66-68	-13.4227
▁stall	-13.4227
1.02	-13.4227
▁mobiphone	-13.4227
▁lacotte	-13.4227
▁swandor	-13.4227
▁នជ	-13.4227
▁paragon	-13.4227
▁1179/1	-13.4227
▁44-46	-13.4227
▁dsaij	-13.4227
▁79/161/	-13.4227
▁galina	-13.4227
▁quuo	-13.4227
▁145/1/2	-13.4227
▁bleh	-13.4227
▁waterpoint	-13.4227
www	-13.4227
າດ	-13.4227
▁candy	-13.4227
▁47-49	-13.4227
▁electr	-13.4227
ку	-13.4227
▁bookstore	-13.4227
▁cable	-13.4227
▁kinden	-13.4227
▁luxgarden	-13.4227
▁đakao	-13.4227
▁đhsg	-13.4227
▁romantic	-13.4228
▁yoyo	-13.4228
▁sepon	-13.4228
ма	-13.4228
▁36-38	-13.4228
▁55/107	-13.4228
▁64/282	-13.4228
▁rada	-13.4228
▁173/68/81	-13.4228
▁elec	-13.4228
▁hosana	-13.4228
▁9/457	-13.4228
▁menard	-13.4228
▁tropicana	-13.4228
pride	-13.4228
▁jimy	-13.4228
▁beezone	-13.4228
▁កប	-13.4228
海山	-13.4228
▁34-35	-13.4228
▁9/29/2	-13.4228
▁28-34	-13.4228
▁healthcare	-13.4228
▁hopngf	-13.4228
▁dirt	-13.4228
▁mgar	-13.4228
serco	-13.4228
▁molly	-13.4228
▁vinpalace	-13.4228
▁261/15/71/	-13.4228
▁youone	-13.4228
▁nhsc	-13.4228
▁genimex	-13.4228
▁optical	-13.4228
▁walking	-13.4228
▁grồng	-13.4228
▁កស	-13.4228
venture	-13.4228
▁plage	-13.4228
▁taproom	-13.4228
▁plane	-13.4228
▁idol	-13.4228
▁silverland	-13.4228
▁clothes	-13.4228
▁donut	-13.4228
▁nghiều	-13.4228
▁igc	-13.4228
▁rosie	-13.4228
▁kimbap	-13.4228
▁53/176	-13.4228
▁toả	-13.4228
▁11/135	-13.4228
▁00084	-13.4228
▁nhấ	-13.4228
▁supply	-13.4228
▁latino	-13.4228
mount	-13.4228
▁bagel	-13.4228
▁mtcn	-13.4228
▁sonasea	-13.4228
▁classes	-13.4229
▁zenmy	-13.4229
▁shinchi	-13.4229
▁amant	-13.4229
▁coupl	-13.4229
▁ctcp	-13.4229
▁thomas	-13.4229
▁foam	-13.4229
▁everon	-13.4229
▁simone	-13.4229
▁petshop	-13.4229
▁dreamhome	-13.4229
▁41/21/13	-13.4229
▁liếng	-13.4229
▁phèo	-13.4229
▁adore	-13.4229
▁3-4-5	-13.4229
▁apron	-13.4229
▁ktur	-13.4229
-09166	-13.4229
▁503/82	-13.4229
▁vươtj	-13.4229
▁pickle	-13.4229
▁8/263	-13.4229
▁sofa	-13.4229
▁lply	-13.4229
▁befit	-13.4229
▁minnie	-13.4229
▁gangnam	-13.423
▁trượt	-13.423
▁334/98/	-13.423
▁93-95	-13.423
▁beking	-13.423
vegas	-13.423
▁púch	-13.423
▁737/57	-13.423
▁coaster	-13.423
▁nguơn	-13.423
▁taiyo	-13.423
yanmar	-13.423
▁poker	-13.423
▁896/72	-13.423
/7-9	-13.423
▁469/72	-13.423
▁bosco	-13.423
▁loỏng	-13.423
▁đẹt	-13.4231
đhqghn	-13.4231
▁lda	-13.4231
▁453/77	-13.4231
▁4/116	-13.4231
ross	-13.4231
▁888/67/	-13.4231
▁cnctech	-13.4231
▁nhỡ	-13.4231
-0386	-13.4231
▁380/81	-13.4231
▁482/10/28	-13.4231
-002	-13.4231
▁861/72/8	-13.4231
▁teung	-13.4231
▁triểu	-13.4231
uói	-13.4231
▁mính	-13.4231
ection	-13.4231
▁411/67	-13.4232
▁huồng	-13.4232
▁giầu	-13.4232
▁grandpark	-13.4232
▁inư	-13.4232
▁sanofi	-13.4232
▁mylux	-13.4232
▁lorr	-13.4232
▁tcp	-13.4232
▁mrông	-13.4232
▁vietstar	-13.4232
▁newlife	-13.4232
▁metrang	-13.4232
▁nghiêpj	-13.4233
▁mwg	-13.4233
▁camelia	-13.4233
▁1-2-3	-13.4233
▁86/16/18	-13.4233
▁27/9/50	-13.4233
▁vaeco	-13.4233
▁moshi	-13.4233
▁410/64/	-13.4233
▁791/23	-13.4233
▁guốc	-13.4234
▁vở	-13.4234
▁562/62	-13.4234
▁nônng	-13.4234
▁hẹp	-13.4234
imexco	-13.4234
▁botanical	-13.4234
▁thoáng	-13.4235
▁choẹ	-13.4235
▁nhyt	-13.4235
▁hiều	-13.4235
▁kalap	-13.4235
▁ráp	-13.4235
-0376	-13.4235
▁itl	-13.4235
▁434/46	-13.4235
▁bonka	-13.4235
▁134/109	-13.4236
▁hý	-13.4236
▁uar	-13.4236
▁mống	-13.4236
▁2385/8	-13.4236
▁oceanpark	-13.4236
▁499/44/	-13.4236
▁vimat	-13.4236
▁floral	-13.4236
▁mất	-13.4236
▁kool	-13.4236
水口河	-13.4237
▁parin	-13.4237
▁truyên	-13.4237
▁puma	-13.4237
▁omon	-13.4237
1386	-13.4237
▁154/83	-13.4237
▁daiso	-13.4237
-0962	-13.4237
▁boà	-13.4237
▁hard	-13.4237
▁vú	-13.4238
▁637/61	-13.4238
18-07	-13.4238
▁145/93	-13.4238
0607	-13.4238
▁793/28/	-13.4238
▁riê	-13.4239
▁gát	-13.424
▁413/41/	-13.4241
-0907	-13.4241
▁happyland	-13.4241
▁618/13/	-13.4241
▁558/64/	-13.4242
-0945	-13.4244
▁very	-13.4245
▁532/21/	-13.4246
▁363/38/	-13.4247
▁buck	-13.4249
▁536/32/	-13.425
▁207/16/2	-13.425
▁147/50/	-13.425
▁yola	-13.4251
▁140/39/	-13.4255
9/14/1	-13.4258
▁416/29/	-13.4259
shirt	-13.4261
▁151/67/	-13.4268
▁daeh	-13.4272
▁за	-13.4272
▁manufacturer	-13.4275
▁dfuwow	-13.4275
nail	-13.4278
▁208/18/55/2	-13.4279
▁266/40/	-13.4285
▁142/35/	-13.4286
▁vốn	-13.4287
▁203/19/	-13.4287
▁477/10/	-13.4288
6/21/2	-13.4289
▁175/18/	-13.4294
▁frit	-13.4294
utter	-13.4295
▁114/42/	-13.4299
asia	-13.4304
▁195/16/	-13.4304
▁258/7/	-13.4304
16-19	-13.4311
▁urc	-13.4327
ươmg	-13.4335
ella	-13.4343
▁218/25/	-13.4343
▁30/99/	-13.4347
▁416/6/	-13.436
▁145/10/	-13.4361
▁68/53/	-13.4367
▁lọi	-13.4371
▁122/27/	-13.4385
▁69/6/	-13.442
umini	-13.4441
▁105/11/	-13.4446
▁150/26/	-13.4482
▁12/32/	-13.4496
▁45/43/	-13.4496
ngoại	-13.4516
▁monte	-13.4535
milan	-13.4551
micro	-13.4551
ympho	-13.4584
09-6	-13.4587
wear	-13.4596
8/192	-13.4601
▁27/56/	-13.4623
01-10	-13.4636
▁12/48/	-13.4694
▁600/4/4	-13.4708
pharm	-13.4739
▁19/40/	-13.4745
▁2/73/1	-13.4773
06-0	-13.4978
ingf	-13.4988
appa	-13.5015
539/19/11	-13.5037
designer	-13.5038
1/2/10	-13.5088
ries	-13.5141
▁dhă	-13.5175
đừ	-13.5236
tees	-13.525
/181/10/	-13.5252
01-02	-13.5412
▁74/9/	-13.5427
▁764/9	-13.5495
9999	-13.5565
46/60	-13.5705
54/51	-13.5806
5/132	-13.5932
oãn	-13.623
▁53/181	-13.6289
60/42	-13.6374
arry	-13.6493
▁175/40/	-13.6781
▁billard	-13.6797
9/24/1	-13.6835
romi	-13.6911
feed	-13.6918
▁115-117	-13.7236
▁512/1/3	-13.7246
▁110-112	-13.7411
indy	-13.7436
úóng	-13.7452
đươ	-13.7505
nature	-13.7505
ច	-13.7506
brew	-13.7507
logistics	-13.7507
computer	-13.7508
medic	-13.7508
cuisine	-13.7508
ບ	-13.7508
baby	-13.7508
độc	-13.7509
bảy	-13.7509
không	-13.7509
diệu	-13.7509
đặng	-13.7509
quận	-13.7509
tùng	-13.7509
bạch	-13.7509
dục	-13.7509
phát	-13.751
▁scoot	-13.7534
▁âcd	-13.7539
ghĩa	-13.7552
▁marriot	-13.7554
▁candle	-13.7555
▁cosmetic	-13.7555
▁đụn	-13.7556
▁硕龙	-13.7556
▁faifo	-13.7558
▁67/4/27	-13.7559
景区	-13.756
▁restaura	-13.756
ант	-13.756
公	-13.756
▁фу	-13.756
和	-13.756
局	-13.756
平	-13.756
昆	-13.756
铁	-13.756
바	-13.756
보	-13.756
▁brauh	-13.756
▁cashew	-13.756
▁comfort	-13.756
▁sherwood	-13.756
▁магазин	-13.756
-16-17-18-19-20	-13.756
02.23	-13.756
16-66-68	-13.756
17-47+48+49+50	-13.756
17/23/36	-13.756
20.940806	-13.756
;	-13.756
eastgate	-13.756
experience	-13.756
khhgđ	-13.756
krishna	-13.756
machinco	-13.756
muskvn	-13.756
muslimin	-13.756
teppanyaki	-13.756
vādī	-13.756
å	-13.756
ʻ	-13.756
א	-13.756
ן	-13.756
ล	-13.756
ທ	-13.756
ເຫນ	-13.756
▁.....,	-13.756
▁0343856789	-13.756
▁1041/119/22	-13.756
▁106°1408.0	-13.756
▁172/183/26/	-13.756
▁180-192	-13.756
▁184/38/49	-13.756
▁1917/24/36	-13.756
▁2/322/50	-13.756
▁208-210	-13.756
▁213-215	-13.756
▁248-250	-13.756
▁250/60/41	-13.756
▁254-256	-13.756
▁255-257	-13.756
▁26/2/163	-13.756
▁261/15/78/7	-13.756
▁269/22/4/25	-13.756
▁292/294/49	-13.756
▁307-309	-13.756
▁32/37/205	-13.756
▁354-356	-13.756
▁40-42-43	-13.756
▁586-588	-13.756
▁66-68-70	-13.756
▁adelaide	-13.756
▁afternoon	-13.756
▁alibaba	-13.756
▁appliances	-13.756
▁apricot	-13.756
▁aquarium	-13.756
▁aquino	-13.756
▁assisi	-13.756
▁athens	-13.756
▁august	-13.756
▁automatic	-13.756
▁aventis	-13.756
▁avocado	-13.756
▁bangkok	-13.756
▁baniphar	-13.756
▁belgian	-13.756
▁beylié	-13.756
▁bhượp	-13.756
▁biconsi	-13.756
▁biđoúp	-13.756
▁blessed	-13.756
▁boardgame	-13.756
▁booyoung	-13.756
▁boulder	-13.756
▁breville	-13.756
▁brunch	-13.756
▁builder	-13.756
▁bulgogi	-13.756
▁bureau	-13.756
▁bứou	-13.756
▁caffé	-13.756
▁canaux	-13.756
▁canberra	-13.756
▁capsule	-13.756
▁captain	-13.756
▁capybara	-13.756
▁cartier	-13.756
▁cassia	-13.756
▁centennial	-13.756
▁champion	-13.756
▁chickpea	-13.756
▁chopsticks	-13.756
▁chorạch	-13.756
▁christian	-13.756
▁citadel	-13.756
▁citisoho	-13.756
▁cliff	-13.756
▁closed	-13.756
▁cocacola	-13.756
▁cocovip	-13.756
▁columbia	-13.756
▁commerce	-13.756
▁commonwealth	-13.756
▁compass	-13.756
▁concordia	-13.756
▁conservation	-13.756
▁consulting	-13.756
▁corazon	-13.756
▁counter	-13.756
▁cqđd	-13.756
▁crêpe	-13.756
▁datanla	-13.756
▁dduongwf	-13.756
▁dentium	-13.756
▁detailing	-13.756
▁detroit	-13.756
▁dhamma	-13.756
▁distributor	-13.756
▁double	-13.756
▁dragonfly	-13.756
▁dumpling	-13.756
▁dyeing	-13.756
▁dynasty	-13.756
▁eahleo	-13.756
▁embassy	-13.756
▁emotion	-13.756
▁emporium	-13.756
▁enclosure	-13.756
▁ernst	-13.756
▁espresso	-13.756
▁essensia	-13.756
▁ethertronics	-13.756
▁evelyn	-13.756
▁evngenco	-13.756
▁exotic	-13.756
▁fahasha	-13.756
▁fantasea	-13.756
▁felisa	-13.756
▁fisherman	-13.756
▁flagship	-13.756
▁florita	-13.756
▁fodacon	-13.756
▁foundation	-13.756
▁fountain	-13.756
▁fraser	-13.756
▁freedom	-13.756
▁frozen	-13.756
▁givral	-13.756
▁giụi	-13.756
▁goofoo	-13.756
▁guột	-13.756
▁gâteaux	-13.756
▁général	-13.756
▁gừng	-13.756
▁hammock	-13.756
▁hancook	-13.756
▁hdapplecenter	-13.756
▁headquarters	-13.756
▁hilfiger	-13.756
▁historical	-13.756
▁hivcaobang	-13.756
▁hlốp	-13.756
▁household	-13.756
▁housinco	-13.756
▁huội	-13.756
▁hyosung	-13.756
▁iagrai	-13.756
▁iakrai	-13.756
▁import	-13.756
▁incense	-13.756
▁independant	-13.756
▁innisfree	-13.756
▁insurance	-13.756
▁ippudo	-13.756
▁ispace	-13.756
▁jaeyoung	-13.756
▁jotun	-13.756
▁jumbo	-13.756
▁keith	-13.756
▁kevin	-13.756
▁kikyo	-13.756
▁kingjoy	-13.756
▁kmrơng	-13.756
▁knốp	-13.756
▁koretvina	-13.756
▁kosmo	-13.756
▁krăng	-13.756
▁kurumi	-13.756
▁kyothu	-13.756
▁kâraoke	-13.756
▁ladybird	-13.756
▁lecture	-13.756
▁leisure	-13.756
▁levain	-13.756
▁library	-13.756
▁lấu	-13.756
▁malaysia	-13.756
▁management	-13.756
▁manulife	-13.756
▁marubeni	-13.756
▁matexim	-13.756
▁matsuo	-13.756
▁mcnex	-13.756
▁meeting	-13.756
▁megamall	-13.756
▁mercury	-13.756
▁metropolitan	-13.756
▁mexican	-13.756
▁mgallery	-13.756
▁monastic	-13.756
▁monument	-13.756
▁morison	-13.756
▁morrison	-13.756
▁moscow	-13.756
▁mumtaz	-13.756
▁muse	-13.756
▁mvillage	-13.756
▁mykingdom	-13.756
▁mékong	-13.756
▁nathalie	-13.756
▁ndraik	-13.756
▁newwing	-13.756
▁nhầy	-13.756
▁nippon	-13.756
▁nirvana	-13.756
▁obama	-13.756
▁observation	-13.756
▁ohier	-13.756
▁olala	-13.756
▁orginami	-13.756
▁orthopedics	-13.756
▁packaging	-13.756
▁pagnou	-13.756
▁pakexim	-13.756
▁palawan	-13.756
▁paragliding	-13.756
▁parkroyal	-13.756
▁parosand	-13.756
▁partners	-13.756
▁partnership	-13.756
▁pastry	-13.756
▁pavillion	-13.756
▁pegatron	-13.756
▁peugeot	-13.756
▁philippine	-13.756
▁phoebe	-13.756
▁phootcopy	-13.756
▁phửợ	-13.756
▁piaget	-13.756
▁platform	-13.756
▁pongour	-13.756
▁pontoon	-13.756
▁pouchen	-13.756
▁pouches	-13.756
▁precision	-13.756
▁pretty	-13.756
▁prison	-13.756
▁produce	-13.756
▁production	-13.756
▁products	-13.756
▁puluong	-13.756
▁pumpkin	-13.756
▁queyon	-13.756
▁quăng	-13.756
▁qưới	-13.756
▁regina	-13.756
▁rehabilitation	-13.756
▁rimula	-13.756
▁saigontourist	-13.756
▁salinda	-13.756
▁sathay	-13.756
▁savanna	-13.756
▁saïgon	-13.756
▁scorpion	-13.756
▁sculpture	-13.756
▁seedcom	-13.756
▁selectum	-13.756
▁sentosa	-13.756
▁serey	-13.756
▁sesame	-13.756
▁shamoji	-13.756
▁shelter	-13.756
▁shipping	-13.756
▁shipyard	-13.756
▁shizen	-13.756
▁shuttle	-13.756
▁sidewalk	-13.756
▁siệp	-13.756
▁sleep	-13.756
▁sofitel	-13.756
▁soldiers	-13.756
▁speedboat	-13.756
▁srêpốk	-13.756
▁stadium	-13.756
▁stanley	-13.756
▁surgery	-13.756
▁swiss	-13.756
▁sêrêpok	-13.756
▁sêrêpôk	-13.756
▁takagi	-13.756
▁talents	-13.756
▁tamagawa	-13.756
▁thälmann	-13.756
▁tiniworld	-13.756
▁trumpet	-13.756
▁truoefng	-13.756
▁trũng	-13.756
▁trưofng	-13.756
▁tytnhh	-13.756
▁ubytovani	-13.756
▁unclassified	-13.756
▁united	-13.756
▁useful	-13.756
▁usilk	-13.756
▁vaccination	-13.756
▁vegetable	-13.756
▁veritas	-13.756
▁verosa	-13.756
▁veston	-13.756
▁vietcapital	-13.756
▁vietnamobile	-13.756
▁viettheo	-13.756
▁vingrop	-13.756
▁vuitton	-13.756
▁wagwel	-13.756
▁wagyu	-13.756
▁waseco	-13.756
▁windmill	-13.756
▁wolf	-13.756
▁woman	-13.756
▁workspace	-13.756
▁yuthka	-13.756
▁êban	-13.756
▁êmông	-13.756
▁ðẩu	-13.756
▁đùi	-13.756
▁đăklăk	-13.756
▁đứcmẹtràkiệu	-13.756
▁аренда	-13.756
▁мотоциклов	-13.756
▁по	-13.756
▁сапфир	-13.756
▁спорт	-13.756
▁центр	-13.756
▁ແກ	-13.756
▁ແຈຝາຍ	-13.756
▁នកម	-13.756
▁上坝	-13.756
▁中华	-13.756
▁南溪河	-13.756
▁平孟	-13.756
▁平而	-13.756
▁归春河	-13.756
▁新寨	-13.756
▁明良江	-13.756
▁李仙江	-13.756
▁槮江	-13.756
▁猛硐河	-13.756
▁观光大道	-13.756
▁賢良江	-13.756
▁金水河	-13.756
▁高林	-13.756
光	-13.756
关	-13.756
凤	-13.756
华	-13.756
卡	-13.756
合	-13.756
吕平公路	-13.756
味	-13.756
坝	-13.756
城	-13.756
安宁公路	-13.756
岭	-13.756
弯	-13.756
念井公路	-13.756
怀	-13.756
旅	-13.756
月	-13.756
木	-13.756
桥	-13.756
沙	-13.756
洞	-13.756
秀	-13.756
科	-13.756
自	-13.756
车站	-13.756
골	-13.756
구이	-13.756
는	-13.756
다	-13.756
동	-13.756
모	-13.756
소	-13.756
수	-13.756
아	-13.756
어	-13.756
치	-13.756
호	-13.756
-1200001013	-13.756
▁135-137	-13.756
▁1632/11/16/14	-13.756
▁1982/100	-13.756
▁862/116/	-13.756
▁89/1/86	-13.756
▁expo	-13.756
▁français	-13.756
▁oven	-13.756
▁robins	-13.756
▁sunsea	-13.756
bliss	-13.756
delivery	-13.756
ຣ	-13.756
▁102/44/33	-13.756
▁102/44/49	-13.756
▁145/26/36	-13.756
▁165/9/56	-13.756
▁169-171	-13.756
▁273/21/20	-13.756
▁337/22/4	-13.756
▁44/8/10/1	-13.756
▁445/26/6	-13.756
▁609-611	-13.756
▁62/69/10	-13.756
▁8-11-12	-13.756
▁879/20/10	-13.756
▁alphabet	-13.756
▁alêô	-13.756
▁ashima	-13.756
▁aviation	-13.756
▁bhflex	-13.756
▁buiding	-13.756
▁bẽnh	-13.756
▁chụt	-13.756
▁cđsp	-13.756
▁cưkuin	-13.756
▁diễu	-13.756
▁dluê	-13.756
▁dươnhf	-13.756
▁eatieu	-13.756
▁fharm	-13.756
▁gmail	-13.756
▁grade	-13.756
▁hiêfn	-13.756
▁housing	-13.756
▁hãi	-13.756
▁hơtl	-13.756
▁hời	-13.756
▁iaphi	-13.756
▁impossible	-13.756
▁insee	-13.756
▁kingkong	-13.756
▁kopee	-13.756
▁kạch	-13.756
▁lacasta	-13.756
▁lumina	-13.756
▁lấm	-13.756
▁micae	-13.756
▁nghiẹp	-13.756
▁nhuôm	-13.756
▁nkkn	-13.756
▁nnbảy	-13.756
▁omega	-13.756
▁phớn	-13.756
▁pomelo	-13.756
▁potato	-13.756
▁religio	-13.756
▁sarimi	-13.756
▁soccer	-13.756
▁soái	-13.756
▁teacher	-13.756
▁tomato	-13.756
▁trendy	-13.756
▁trăp	-13.756
▁trươgf	-13.756
▁vietlott	-13.756
▁vinafor	-13.756
▁vạt	-13.756
▁xộp	-13.756
安	-13.7561
板	-13.7561
门	-13.7561
农	-13.7561
斗	-13.7561
國	-13.7561
л	-13.7617
ສ	-14.127
ន	-14.2374
ធ	-14.2506
ហ	-14.2507
ផ	-14.2507
客	-14.256
游	-14.256
跨	-14.256
集	-14.256
ย	-14.256
館	-14.256
个	-14.256
ס	-14.256
ר	-14.256
ا	-14.256
ข	-14.256
ハ	-14.256
발	-14.256
ö	-14.256
ø	-14.256
ё	-14.256
景	-14.256
滇	-14.256
邦	-14.256
^	-14.256
û	-14.256
ǎ	-14.256
ו	-14.256
מ	-14.256
ע	-14.256
ก	-14.256
ง	-14.256
น	-14.256
ม	-14.256
เ	-14.256
ຟ	-14.256
ຢ	-14.256
ឆ	-14.256
す	-14.256
ま	-14.256
ん	-14.256
ン	-14.256
会	-14.256
保	-14.256
信	-14.256
内	-14.256
分	-14.256
吉	-14.256
启	-14.256
址	-14.256
塘	-14.256
委	-14.256
寺	-14.256
屋	-14.256
工	-14.256
庙	-14.256
式	-14.256
戛	-14.256
支	-14.256
方	-14.256
春	-14.256
条	-14.256
树	-14.256
桂	-14.256
永	-14.256
滑	-14.256
滩	-14.256
潭	-14.256
狮	-14.256
猫	-14.256
瓜	-14.256
省	-14.256
竹	-14.256
红	-14.256
花	-14.256
茅	-14.256
角	-14.256
运	-14.256
通	-14.256
部	-14.256
隘	-14.256
顺	-14.256
飯	-14.256
香	-14.256
금	-14.256
노	-14.256
드	-14.256
랑	-14.256
물	-14.256
민	-14.256
삼	-14.256
상	-14.256
오	-14.256
원	-14.256
지	-14.256
트	-14.256
하	-14.256
￼	-14.256
其	-14.2561
后	-14.2561
麻	-14.2561
−	-14.2561
冬	-14.2561
号	-14.2561
會	-14.2561
生	-14.2561
贸	-14.2561
雷	-14.2561
鱼	-14.2561
都	-14.2561
全	-14.2561
텔	-15.2397
주	-15.2398
양	-15.2399
안	-15.24
랏	-15.2401
든	-15.2402
달	-15.2403
꼬	-15.2404
饭	-15.2405
靖	-15.2406
雨	-15.2407
隧	-15.2408
限	-15.2409
际	-15.241
长	-15.2411
钦	-15.2412
迁	-15.2413
車	-15.2414
谐	-15.2415
规	-15.2416
華	-15.2417
英	-15.2418
色	-15.2419
腾	-15.242
群	-15.2421
维	-15.2422
白	-15.2423
瑶	-15.2424
浦	-15.2425
派	-15.2426
治	-15.2427
查	-15.2428
枯	-15.2429
松	-15.243
政	-15.2431
扣	-15.2432
心	-15.2433
延	-15.2434
底	-15.2435
库	-15.2436
尖	-15.2437
字	-15.2438
士	-15.2439
堤	-15.244
土	-15.2441
各	-15.2442
叫	-15.2443
六	-15.2444
八	-15.2445
互	-15.2446
云	-15.2447
也	-15.2448
一	-15.2449
៣	-15.245
ឧ	-15.2451
ร	-15.2452
ת	-15.2453
ש	-15.2454
ט	-15.2455
ח	-15.2456
ō	-15.2457
%	-15.2458
한	-15.2459
식	-15.246
박	-15.2461
맛	-15.2462
당	-15.2463
닌	-15.2464
黄	-15.2465
賢	-15.2466
谊	-15.2467
腰	-15.2468
而	-15.2469
综	-15.247
滨	-15.2471
溪	-15.2472
波	-15.2473
槮	-15.2474
梁	-15.2475
归	-15.2476
家	-15.2477
墩	-15.2478
四	-15.2479
司	-15.248
井	-15.2481
៧	-15.2482
ឌ	-15.2483
ຝ	-15.2484
ī	-15.2485
ė	-15.2486
ç	-15.2487
베	-15.2488
餐	-15.2489
食	-15.249
母	-15.2491
李	-15.2492
岳	-15.2493
壬	-15.2494
圩	-15.2495
喀	-15.2496
厅	-15.2497
乐	-15.2498
丘	-15.2499
ឡ	-15.25
ב	-15.2501
😁	-15.2502
硕	-15.2503
田	-15.2504
巴	-15.2505
峒	-15.2506
岩	-15.2507
兰	-15.2508
三	-15.2509
と	-15.251
២	-15.2511
–	-15.2511
ភ	-15.2512
鞍	-15.2512
银	-15.2513
硐	-15.2514
猛	-15.2515
族	-15.2516
德	-15.2517
市	-15.2518
半	-15.2519
ຈ	-15.252
宁	-15.2521
友	-15.2522
兴	-15.2523
ï	-15.2524
芽	-15.2525
孟	-15.2526
吕	-15.2527
仑	-15.2528
ថ	-15.2529
ຂ	-15.253
速	-15.2531
第	-15.2532
港	-15.2533
峴	-15.2534
ຽ	-15.2535
观	-15.2536
₫	-15.2537
ខ	-15.2538
东	-15.2539
下	-15.254
岸	-15.2541
ц	-15.2542
鐵	-15.2543
ណ	-15.2544
ໍ	-15.2545
į	-15.2546
ຫ	-15.2547
高	-15.2548
°	-15.2549
沿	-15.255
ð	-15.2551
ẫ	-15.2552
ẵ	-15.2553
ẳ	-15.2554
ằ	-15.2555
ặ	-15.2556
ẩ	-15.2557
ỳ	-15.2558
ữ	-15.2559
ậ	-15.256
ア	-15.256
拔	-15.256
散	-15.256
護	-15.256
니	-15.256
왕	-15.256
ג	-15.256
ק	-15.256
ر	-15.256
غ	-15.256
و	-15.256
川	-15.256
战	-15.256
最	-15.256
有	-15.256
汤	-15.256
漂	-15.256
灣	-15.256
觀	-15.256
近	-15.256
附	-15.256
고	-15.256
망	-15.256
메	-15.256
족	-15.256
学	-15.256
ü	-15.256
聚	-15.256
跃	-15.256
车	-15.256
酒	-15.256
点	-15.256
구	-15.256
#	-15.256
B	-15.256
T	-15.256
[	-15.256
|	-15.256
æ	-15.256
ë	-15.256
ą	-15.256
ď	-15.256
ě	-15.256
ı	-15.256
ŏ	-15.256
ů	-15.256
ɑ	-15.256
ю	-15.256
כ	-15.256
ם	-15.256
פ	-15.256
ن	-15.256
ช	-15.256
ซ	-15.256
ป	-15.256
ส	-15.256
อ	-15.256
แ	-15.256
ไ	-15.256
ํ	-15.256
ᅩ	-15.256
ឋ	-15.256
ឱ	-15.256
ᴄ	-15.256
‘	-15.256
し	-15.256
ち	-15.256
つ	-15.256
み	-15.256
め	-15.256
ゃ	-15.256
や	-15.256
ら	-15.256
イ	-15.256
ウ	-15.256
オ	-15.256
ザ	-15.256
ス	-15.256
ッ	-15.256
ピ	-15.256
ミ	-15.256
メ	-15.256
ラ	-15.256
与	-15.256
业	-15.256
两	-15.256
丫	-15.256
丰	-15.256
丸	-15.256
么	-15.256
义	-15.256
九	-15.256
亀	-15.256
交	-15.256
产	-15.256
亭	-15.256
仙	-15.256
伴	-15.256
低	-15.256
佛	-15.256
作	-15.256
佬	-15.256
供	-15.256
依	-15.256
停	-15.256
储	-15.256
像	-15.256
先	-15.256
入	-15.256
共	-15.256
兵	-15.256
典	-15.256
册	-15.256
军	-15.256
冲	-15.256
処	-15.256
凰	-15.256
出	-15.256
列	-15.256
则	-15.256
初	-15.256
利	-15.256
别	-15.256
刮	-15.256
前	-15.256
割	-15.256
办	-15.256
务	-15.256
勇	-15.256
包	-15.256
化	-15.256
十	-15.256
博	-15.256
参	-15.256
发	-15.256
叠	-15.256
名	-15.256
向	-15.256
吴	-15.256
员	-15.256
咖	-15.256
唐	-15.256
商	-15.256
啡	-15.256
喰	-15.256
团	-15.256
园	-15.256
團	-15.256
圣	-15.256
在	-15.256
坤	-15.256
坳	-15.256
埔	-15.256
域	-15.256
基	-15.256
堡	-15.256
塞	-15.256
壁	-15.256
壮	-15.256
多	-15.256
夫	-15.256
奈	-15.256
奔	-15.256
姑	-15.256
孵	-15.256
宇	-15.256
定	-15.256
实	-15.256
宾	-15.256
对	-15.256
寻	-15.256
尊	-15.256
尚	-15.256
尾	-15.256
层	-15.256
岽	-15.256
峙	-15.256
峰	-15.256
左	-15.256
巷	-15.256
帝	-15.256
带	-15.256
幽	-15.256
广	-15.256
庄	-15.256
庆	-15.256
康	-15.256
廟	-15.256
廠	-15.256
弍	-15.256
张	-15.256
征	-15.256
志	-15.256
怒	-15.256
恩	-15.256
悦	-15.256
技	-15.256
把	-15.256
择	-15.256
挝	-15.256
插	-15.256
教	-15.256
整	-15.256
文	-15.256
斋	-15.256
日	-15.256
旧	-15.256
易	-15.256
時	-15.256
暗	-15.256
暨	-15.256
服	-15.256
本	-15.256
权	-15.256
東	-15.256
标	-15.256
栖	-15.256
栗	-15.256
校	-15.256
格	-15.256
桜	-15.256
梅	-15.256
检	-15.256
棒	-15.256
棕	-15.256
棚	-15.256
欧	-15.256
段	-15.256
殿	-15.256
比	-15.256
毛	-15.256
毯	-15.256
汽	-15.256
沟	-15.256
油	-15.256
法	-15.256
泽	-15.256
洒	-15.256
涯	-15.256
渠	-15.256
湾	-15.256
源	-15.256
满	-15.256
澤	-15.256
瀧	-15.256
烂	-15.256
烧	-15.256
烹	-15.256
燕	-15.256
牌	-15.256
牙	-15.256
物	-15.256
犁	-15.256
状	-15.256
独	-15.256
玉	-15.256
珍	-15.256
珠	-15.256
理	-15.256
琴	-15.256
用	-15.256
甲	-15.256
电	-15.256
畔	-15.256
疗	-15.256
的	-15.256
皮	-15.256
眷	-15.256
督	-15.256
石	-15.256
矿	-15.256
码	-15.256
碑	-15.256
礼	-15.256
社	-15.256
祠	-15.256
福	-15.256
箐	-15.256
管	-15.256
紀	-15.256
終	-15.256
级	-15.256
纳	-15.256
置	-15.256
署	-15.256
義	-15.256
者	-15.256
肉	-15.256
胡	-15.256
至	-15.256
良	-15.256
苏	-15.256
茂	-15.256
范	-15.256
茶	-15.256
莎	-15.256
落	-15.256
蒙	-15.256
蓄	-15.256
蓝	-15.256
蔵	-15.256
蕎	-15.256
號	-15.256
蛋	-15.256
蛙	-15.256
螃	-15.256
蟹	-15.256
製	-15.256
褚	-15.256
諭	-15.256
讯	-15.256
谷	-15.256
贤	-15.256
踩	-15.256
轮	-15.256
辅	-15.256
逍	-15.256
遗	-15.256
遥	-15.256
邓	-15.256
邮	-15.256
郡	-15.256
醒	-15.256
里	-15.256
野	-15.256
鉴	-15.256
锅	-15.256
锰	-15.256
镜	-15.256
門	-15.256
開	-15.256
闲	-15.256
防	-15.256
阴	-15.256
陀	-15.256
陆	-15.256
陇	-15.256
陈	-15.256
雕	-15.256
雞	-15.256
雾	-15.256
面	-15.256
韓	-15.256
音	-15.256
顶	-15.256
领	-15.256
颈	-15.256
馬	-15.256
驮	-15.256
验	-15.256
骨	-15.256
魔	-15.256
鸟	-15.256
鸭	-15.256
鸿	-15.256
麦	-15.256
麵	-15.256
麺	-15.256
黎	-15.256
黑	-15.256
點	-15.256
龍	-15.256
각	-15.256
갈	-15.256
갑	-15.256
거	-15.256
건	-15.256
게	-15.256
경	-15.256
공	-15.256
교	-15.256
김	-15.256
꽝	-15.256
끼	-15.256
남	-15.256
낭	-15.256
네	-15.256
녹	-15.256
누	-15.256
더	-15.256
델	-15.256
뎅	-15.256
들	-15.256
럭	-15.256
레	-15.256
로	-15.256
루	-15.256
르	-15.256
리	-15.256
막	-15.256
만	-15.256
무	-15.256
미	-15.256
밥	-15.256
버	-15.256
분	-15.256
불	-15.256
뷰	-15.256
브	-15.256
샤	-15.256
섯	-15.256
쌈	-15.256
씀	-15.256
씨	-15.256
앤	-15.256
엔	-15.256
여	-15.256
열	-15.256
예	-15.256
용	-15.256
은	-15.256
을	-15.256
의	-15.256
있	-15.256
저	-15.256
조	-15.256
존	-15.256
종	-15.256
진	-15.256
짜	-15.256
쭈	-15.256
찬	-15.256
챵	-15.256
천	-15.256
청	-15.256
초	-15.256
촌	-15.256
칸	-15.256
쿱	-15.256
큐	-15.256
크	-15.256
터	-15.256
토	-15.256
프	-15.256
학	-15.256
합	-15.256
회	-15.256
휴	-15.256
œ	-15.2561
ต	-15.2561
假	-15.2561
品	-15.2561
忠	-15.2561
星	-15.2561
晩	-15.2561
欢	-15.2561
深	-15.2561
爱	-15.2561
特	-15.2561
猺	-15.2561
藤	-15.2561
辉	-15.2561
부	-15.2561
빛	-15.2561
쌀	-15.2561
운	-15.2561
主	-15.2561
潮	-15.2561
霜	-15.2561
题	-15.2561
鸡	-15.2561
광	-15.2561
반	-15.2561
り	-15.2561
チ	-15.2561
ホ	-15.2561
ắ	-15.2561
官	-15.2561
故	-15.2561
留	-15.2561
病	-15.2561
軍	-15.2561
